1101111011000101
1101111011001011
1101111011001100
1101111011000111
1101111011001110
1101111011000111
1101111011110111
1101111011001100
1101111011000011
1101111011000011
1101111011001010
1101111011000010
1101111011001011
1101111011000010
1101111011000010
1101111011000101
1101111011000011
1101111011001010
1101111011000110
1101111011110111
1101111011000101
1101111011000101
1101111011001111
1101111011000110
1101111011000110
1101111011000011
1101111011001000
1101111011000100
1101111011001001
1101111011001100
1101111011001000
1101111011000100
1101111011001000
1101111011001100
1101111011000110
1101111011000101
1101111011001000
1101111011110111
1101111011000111
1101111011000010
1101111011000111
1101111011000110
1101111011110111
1101111011001011
1101111011001001
1101111011110111
1101111011001110
1101111011000111
1101111011110111
1101111011000110
1101111011001011
1101111011000111
1101111011000101
1101111011001000
1101111011000110
1101111011000011
1101111011001000
1101111011000010
1101111011000010
1101111011000010
1101111011000100
1101111011001111
1101111011001100
1101111011110111
1101111011001001
1101111011001011
1101111011001001
1101111011000101
1101111011001001
1101111011000111
1101111011000111
1101111011001011
1101111011001100
1101111011000101
1101111011000110
1101111011001011
1101111011001000
1101111011001111
1101111011001011
1101111011001111
1101111011001101
1101111011001000
1101111011000010
1101111011001100
1101111011000111
1101111011001111
1101111011001011
1101111011001001
1101111011000111
1101111011001010
1101111011000110
1101111011001011
1101111011000100
1101111011001110
1101111011001001
1101111011001100
1101111011001010
1101111011001101
1101111011000101
1101111011110111
1101111011001111
1101111011001001
1101111011001010
1101111011000010
1101111011001010
1101111011001001
1101111011001101
1101111011000011
1101111011001001
1101111011000100
1101111011000100
1101111011001100
1101111011000011
1101111011001001
1101111011000100
1101111011001100
1101111011001011
1101111011001001
1101111011001101
1101111011000111
1101111011001100
1101111011000010
1101111011000111
1101111011001111
1101111011001010
1101111011000110
1101111011001010
1101111011001001
1101111011110111
1101111011000100
1101111011001101
1101111011000111
1101111011001101
1101111011001000
1101111011000110
1101111011110111
1101111011001010
1101111011001001
1101111011001011
1101111011000111
1101111011000011
1101111011001111
1101111011000110
1101111011001111
1101111011000110
1101111011001110
1101111011000101
1101111011000110
1101111011000101
1101111011001011
1101111011001010
1101111011000010
1101111011001011
1101111011001010
1101111011000010
1101111011000100
1101111011000100
1101111011000010
1101111011001000
1101111011000010
1101111011000110
1101111011001111
1101111011001110
1101111011110111
1101111011001010
1101111011001100
1101111011000101
1101111011000010
1101111011001101
1101111011001010
1101111011110111
1101111011000100
1101111011000010
1101111011000011
1101111011000101
1101111011001100
1101111011001111
1101111011000101
1101111011001001
1101111011000100
1101111011110111
1101111011000011
1101111011001110
1101111011000010
1101111011000101
1101111011000010
1101111011000011
1101111011001000
1101111011001000
1101111011001010
1101111011110111
1101111011001000
1101111011001110
1101111011001101
1101111011000100
1101111011110111
1101111011001010
1101111011001001
1101111011001101
1101111011001001
1101111011000010
1101111011001000
1101111011000110
1101111011000100
1101111011000101
1101111011001111
1101111011001101
1101111011001011
1101111011001010
1101111011110111
1101111011001011
1101111011001000
1101111011001011
1101111011110111
1101111011110111
1101111011110111
1101111011000010
1101111011001000
1101111011000110
1101111011001000
1101111011000110
1101111011000110
1101111011000110
1101111011001101
1101111011001111
1101111011001010
1101111011001101
1101111011001010
1101111011000011
1101111011000101
1101111011000011
1101111011000101
1101111011000110
1101111011001111
1101111011000111
1101111011001101
1101111011001101
1101111011001001
1101111011001100
1101111011001110
1101111011000010
1101111011001111
1101111011001110
1101111011001011
1101111011000010
1101111011001000
1101111011001001
1101111011000110
1101111011001010
1101111011001101
1101111011000010
1101111011001101
1101111011001000
1101111011001111
1101111011001111
1101111011001101
1101111011000110
1101111011000111
1101111011001110
1101111011000110
1101111011000010
1101111011001100
1101111011001011
1101111011001011
1101111011001011
1101111011000101
1101111011001111
1101111011000111
1101111011000010
1101111011001010
1101111011000111
1101111011000100
1101111011000110
1101111011000101
1101111011000101
1101111011000010
1101111011000100
1101111011000010
1101111011001100
1101111011000011
1101111011001001
1101111011000111
1101111011001110
1101111011110111
1101111011001011
1101111011001110
1101111011000100
1101111011001011
1101111011001111
1101111011001101
1101111011000111
1101111011000100
1101111011000011
1101111011001000
1101111011001001
1101111011110111
1101111011000011
1101111011000111
1101111011001111
1101111011000011
1101111011001110
1101111011001100
1101111011001000
1101111011110111
1101111011001110
1101111011001101
1101111011001111
1101111011000110
1101111011001011
1101111011000010
1101111011001011
1101111011001011
1101111011001001
1101111011000110
1101111011001110
1101111011110111
1101111011001111
1101111011000101
1101111011000111
1101111011001001
1101111011000101
1101111011000100
1101111011000100
1101111011001000
1101111011000101
1101111011000100
1101111011001001
1101111011000100
1101111011000010
1101111011001110
1101111011000011
1101111011001110
1101111011001010
1101111011000010
1101111011001110
1101111011001010
1101111011000110
1101111011000110
1101111011110111
1101111011000010
1101111011000010
1101111011000111
1101111011001000
1101111011001110
1101111011001010
1101111011001110
1101111011000011
1101111011001110
1101111011001100
1101111011000101
1101111011000010
1101111011001011
1101111011001011
1101111011110111
1101111011001000
1101111011001011
1101111011000010
1101111011001101
1101111011001010
1101111011000010
1101111011000100
1101111011000011
1101111011001110
1101111011000100
1101111011110111
1101111011001011
1101111011000100
1101111011001000
1101111011000110
1101111011110111
1101111011000111
1101111011000100
1101111011000101
1101111011001010
1101111011001101
1101111011001011
1101111011000010
1101111011000011
1101111011001101
1101111011000010
1101111011000111
1101111011001111
1101111011001000
1101111011001110
1101111011000100
1101111011000100
1101111011000110
1101111011001110
1101111011000110
1101111011000100
1101111011110111
1101111011000110
1101111011001001
1101111011001001
1101111011000111
1101111011001000
1101111011001111
1101111011000110
1101111011001111
1101111011000101
1101111011001011
1101111011001100
1101111011000010
1101111011000010
1101111011001111
1101111011001001
1101111011000101
1101111011001010
1101111011000111
1101111011000011
1101111011001010
1101111011000011
1101111011001011
1101111011001101
1101111011001110
1101111011001111
1101111011001010
1101111011001010
1101111011110111
1101111011000101
1101111011110111
1101111011110111
1101111011001010
1101111011001000
1101111011001011
1101111011000100
1101111011001000
1101111011001110
1101111011001101
1101111011001100
1101111011000100
1101111011001100
1101111011001001
1101111011000011
1101111011001001
1101111011000101
1101111011000110
1101111011001110
1101111011000010
1101111011001111
1101111011001001
1101111011001111
1101111011000100
1101111011000011
1101111011001111
1101111011000100
1101111011001000
1101111011001011
1101111011000011
1101111011000111
1101111011000100
1101111011000101
1101111011001111
1101111011001000
1101111011000011
1101111011001110
1101111011001101
1101111011000011
1101111011110111
1101111011000010
1101111011110111
1101111011000110
1101111011001010
1101111011000011
1101111011001000
1101111011000100
1101111011000011
1101111011001110
1101111011001100
1101111011001110
1101111011001100
1101111011001010
1101111011000010
1101111011001100
1101111011001111
1101111011000100
1101111011000011
1101111011000110
1101111011110111
1101111011001011
1101111011000111
1101111011110111
1101111011001101
1101111011110111
1101111011001100
1101111011110111
1101111011001111
1101111011001101
1101111011110111
1101111011000110
1101111011001111
1101111011001010
1101111011001101
1101111011001001
1101111011000011
1101111011001101
1101111011001011
1101111011001111
1101111011001100
1101111011001000
1101111011110111
1101111011000010
1101111011001010
1101111011000010
1101111011000011
1101111011001100
1101111011000111
1101111011001101
1101111011001011
1101111011001101
1101111011001110
1101111011001100
1101111011001011
1101111011001111
1101111011000010
1101111011000100
1101111011000100
1101111011001101
1101111011000100
1101111011000101
1101111011001011
1101111011001001
1101111011001001
1101111011001110
1101111011001100
1101111011110111
1101111011001011
1101111011001010
1101111011000100
1101111011001011
1101111011001011
1101111011001100
1101111011000010
1101111011001100
1101111011001100
1101111011000111
1101111011001001
1101111011001100
1101111011000101
1101111011001101
1101111011000011
1101111011001110
1101111011000101
1101111011001111
1101111011001101
1101111011001000
1101111011001011
1101111011000011
1101111011000111
1101111011000111
1101111011001111
1101111011000110
1101111011001000
1101111011001000
1101111011001010
1101111011001100
1101111011001001
1101111011000010
1101111011000100
1101111011001011
1101111011001100
1101111011001000
1101111011001110
1101111011001101
1101111011000010
1101111011001111
1101111011000101
1101111011001100
1101111011000010
1101111011000110
1101111011000010
1101111011001110
1101111011000111
1101111011000011
1101111011110111
1101111011000111
1101111011001110
1101111011000110
1101111011000110
1101111011000100
1101111011000111
1101111011000010
1101111011000100
1101111011001100
1101111011001011
1101111011001100
1101111011001101
1101111011001101
1101111011001011
1101111011000101
1101111011001110
1101111011110111
1101111011001111
1101111011110111
1101111011000111
1101111011001000
1101111011001101
1101111011110111
1101111011000111
1101111011001110
1101111011001111
1101111011000010
1101111011001110
1101111011110111
1101111011001111
1101111011110111
1101111011001001
1101111011001000
1101111011000011
1101111011001101
1101111011001011
1101111011110111
1101111011001111
1101111011000101
1101111011000010
1101111011000010
1101111011000011
1101111011001111
1101111011001001
1101111011000110
1101111011000100
1101111011000011
1101111011110111
1101111011001001
1101111011001100
1101111011001101
1101111011001010
1101111011000101
1101111011001001
1101111011001010
1101111011001010
1101111011000110
1101111011001001
1101111011001001
1101111011000111
1101111011000010
1101111011001000
1101111011001111
1101111011000111
1101111011001000
1101111011000110
1101111011000101
1101111011001001
1101111011001010
1101111011001011
1101111011000110
1101111011000110
1101111011000011
1101111011000011
1101111011001110
1101111011000011
1101111011000100
1101111011000101
1101111011000111
1101111011001111
1101111011000101
1101111011000111
1101111011001101
1101111011001111
1101111011000011
1101111011000011
1101111011110111
1101111011000011
1101111011001001
1101111011000011
1101111011000110
1101111011001100
1101111011000111
1101111011000011
1101111011001010
1101111011110111
1101111011000101
1101111011001011
1101111011001110
1101111011110111
1101111011000011
1101111011001101
1101111011001010
1101111011001010
1101111011001001
1101111011000101
1101111011001100
1101111011000011
1101111011001011
1101111011001111
1101111011000101
1101111011001010
1101111011001000
1101111011000111
1101111011001101
1101111011001101
1101111011000100
1101111011000111
1101111011000010
1101111011000110
1101111011000111
1101111011000010
1101111011000100
1101111011001100
1101111011000011
1101111011001001
1101111011000100
1101111011001110
1101111011001000
1101111011000100
1101111011001001
1101111011001111
1101111011001110
1101111011001001
1101111011110111
1101111011000011
1101111011000011
1101111011001101
1101111011001001
1101111011001100
1101111011110111
1101111011001000
1101111011001000
1101111011001111
1101111011000100
1101111011001111
1101111011000110
1101111011001000
1101111011001001
1101111011001110
1101111011000011
1101111011000111
1101111011000101
1101111011001001
1101111011000110
1101111011000110
1101111011110111
1101111011001011
1101111011001001
1101111011001001
1101111011001010
1101111011001010
1101111011001010
1101111011001101
1101111011001111
1101111011000011
1101111011001010
1101111011001011
1101111011001010
1101111011000100
1101111011000100
1101111011001010
1101111011000111
1101111011001001
1101111011000010
1101111011000011
1101111011000010
1101111011000111
1101111011001001
1101111011000111
1101111011000101
1101111011000110
1101111011000110
1101111011000111
1101111011001010
1101111011000010
1101111011000111
1101111011000011
1101111011001100
1101111011001000
1101111011000111
1101111011001101
1101111011000011
1101111011001111
1101111011001010
1101111011001010
1101111011001000
1101111011110111
1101111011001011
1101111011001001
1101111011001110
1101111011000100
1101111011001010
1101111011000101
1101111011001110
1101111011001010
1101111011000011
1101111011001110
1101111011000100
1101111011001111
1101111011000011
1101111011001011
1101111011001110
1101111011000011
1101111011001110
1101111011001100
1101111011000011
1101111011001011
1101111011000011
1101111011110111
1101111011000010
1101111011000011
1101111011110111
1101111011000110
1101111011001000
1101111011001011
1101111011000111
1101111011001110
1101111011001110
1101111011001101
1101111011000111
1101111011001100
1101111011001110
1101111011000010
1101111011000100
1101111011000010
1101111011001111
1101111011001101
1101111011001011
1101111011001000
1101111011001100
1101111011001110
1101111011000110
1101111011001100
1101111011001010
1101111011001100
1101111011001011
1101111011000100
1101111011000101
1101111011110111
1101111011001111
1101111011000010
1101111011001001
1101111011110111
1101111011001011
1101111011001111
1101111011000110
1101111011000100
1101111011000010
1101111011001010
1101111011001001
1101111011001110
1101111011000010
1101111011001010
1101111011000101
1101111011001011
1101111011001001
1101111011001111
1101111011001001
1101111011000101
1101111011001100
1101111011001111
1101111011001010
1101111011001001
1101111011001101
1101111011000011
1101111011001101
1101111011110111
1101111011001101
1101111011001100
1101111011000101
1101111011001011
1101111011001000
1101111011001111
1101111011000110
1101111011001000
1101111011000101
1101111011000110
1101111011001001
1101111011000011
1101111011000101
1101111011001000
1101111011001000
1101111011001010
1101111011001100
1101111011001100
1101111011001011
1101111011001111
1101111011001000
1101111011000101
1101111011000100
1101111011110111
1101111011000110
1101111011000011
1101111011001100
1101111011000111
1101111011001001
1101111011000111
1101111011001100
1101111011001110
1101111011001111
1101111011000100
1101111011001100
1101111011001011
1101111011001111
1101111011000111
1101111011001111
1101111011001100
1101111011001111
1101111011000111
1101111011000010
1101111011001000
1101111011110111
1101111011001011
1101111011000110
1101111011001010
1101111011001011
1101111011001000
1101111011001101
1101111011000101
1101111011000110
1101111011000110
1101111011110111
1101111011001101
1101111011000110
1101111011001010
1101111011001001
1101111011000101
1101111011001110
1101111011000110
1101111011000111
1101111011000010
1101111011000101
1101111011000010
1101111011001110
1101111011110111
1101111011000011
1101111011001010
1101111011000111
1101111011000101
1101111011000100
1101111011001110
1101111011001010
1101111011000010
1101111011001101
1101111011001101
1101111011001110
1101111011000101
1101111011110111
1101111011000011
1101111011001001
1101111011001101
1101111011000100
1101111011000101
1101111011001010
1101111011001101
1101111011000101
1101111011000110
1101111011000110
1101111011001100
1101111011000111
1101111011001100
1101111011000100
1101111011001101
1101111011000100
1101111011001101
1101111011000100
1101111011110111
1101111011000100
1101111011000011
1101111011001000
1101111011000011
1101111011001011
1101111011000110
1101111011000101
1101111011001011
1101111011001100
1101111011000101
1101111011000010
1101111011001000
1101111011001000
1101111011001001
1101111011000100
1101111011110111
1101111011001010
1101111011001101
1101111011001111
1101111011000101
1101111011001111
1101111011001101
1101111011000101
1101111011001000
1101111011001101
1101111011001001
1101111011001011
1101111011000011
1101111011001010
1101111011001011
1101111011110111
1101111011110111
1101111011001000
1101111011000111
1101111011001110
1101111011001111
1101111011001110
1101111011001110
1101111011001110
1101111011000101
1101111011001100
1101111011001110
1101111011001111
1101111011110111
1101111011000101
1101111011001001
1101111011001000
1101111011000101
1101111011001001
1101111011001010
1101111011001011
1101111011001001
1101111011000110
1101111011001010
1101111011001110
1101111011001100
1101111011000010
1101111011000110
1101111011001100
1101111011001010
1101111011000010
1101111011000110
1101111011001011
1101111011001000
1101111011001010
1101111011110111
1101111011001011
1101111011001100
1101111011000011
1101111011001100
1101111011000100
1101111011110111
1101111011000011
1101111011000011
1101111011001110
1101111011000100
1101111011000111
1101111011001100
1101111011001010
1101111011110111
1101111011001101
1101111011001011
1101111011001110
1101111011110111
1101111011001011
1101111011001101
1101111011001101
1101111011001010
1101111011000101
1101111011001110
1101111011001111
1101111011000110
1101111011000111
1101111011110111
1101111011001000
1101111011001101
1101111011001111
1101111011000100
1101111011000110
1101111011000100
1101111011001000
1101111011001111
1101111011000100
1101111011001010
1101111011000101
1101111011001101
1101111011001110
1101111011000010
1101111011001110
1101111011110111
1101111011001100
1101111011001101
1101111011000100
1101111011000110
1101111011000010
1101111011001100
1101111011001100
1101111011000110
1101111011001000
1101111011001000
1101111011000111
1101111011001101
1101111011001101
1101111011000111
1101111011000111
1101111011000100
1101111011000101
1101111011001011
1101111011110111
1101111011000100
1101111011001011
1101111011001100
1101111011000111
1101111011000101
1101111011001010
1101111011000101
1101111011001100
1101111011000100
1101111011000100
1101111011001000
1101111011000011
1101111011000010
1101111011001111
1101111011000100
1101111011110111
1101111011001110
1101111011001010
1101111011001110
1101111011000010
1101111011000110
1101111011000011
1101111011001001
1101111011001000
1101111011000010
1101111011001000
1101111011000110
1101111011000111
1101111011000110
1101111011000100
1101111011000010
1101111011001001
1101111011001001
1101111011001101
1101111011000100
1101111011001010
1101111011001101
1101111011001110
1101111011001000
1101111011001100
1101111011000110
1101111011001100
1101111011000010
1101111011000010
1101111011000011
1101111011001100
1101111011001110
1101111011001101
1101111011001100
1101111011000101
1101111011000101
1101111011000111
1101111011000010
1101111011001111
1101111011110111
1101111011001101
1101111011001011
1101111011000010
1101111011000111
1101111011001011
1101111011000101
1101111011001010
1101111011001100
1101111011000110
1101111011000101
1101111011001111
1101111011001111
1101111011001100
1101111011000100
1101111011001000
1101111011000011
1101111011000110
1101111011001110
1101111011001111
1101111011110111
1101111011001101
1101111011001011
1101111011000111
1101111011001000
1101111011000011
1101111011000100
1101111011000010
1101111011000111
1101111011001110
1101111011110111
1101111011001101
1101111011001011
1101111011000100
1101111011001000
1101111011001101
1101111011000101
1101111011000010
1101111011000101
1101111011000101
1101111011001001
1101111011001000
1101111011110111
1101111011000011
1101111011000101
1101111011000010
1101111011110111
1101111011001001
1101111011110111
1101111011000011
1101111011000101
1101111011000010
1101111011000011
1101111011001110
1101111011001100
1101111011110111
1101111011001010
1101111011001100
1101111011001010
1101111011001000
1101111011001000
1101111011000101
1101111011110111
1101111011000110
1101111011001011
1101111011110111
1101111011001111
1101111011001001
1101111011000111
1101111011000100
1101111011001101
1101111011000110
1101111011000010
1101111011110111
1101111011001111
1101111011001010
1101111011001101
1101111011001101
1101111011001000
1101111011001111
1101111011000100
1101111011001100
1101111011001100
1101111011001111
1101111011001001
1101111011001000
1101111011001010
1101111011000011
1101111011001100
1101111011001100
1101111011001010
1101111011001101
1101111011000101
1101111011001110
1101111011001011
1101111011001001
1101111011000100
1101111011001001
1101111011000101
1101111011001011
1101111011000011
1101111011001101
1101111011001100
1101111011001100
1101111011110111
1101111011001000
1101111011000011
1101111011000011
1101111011000100
1101111011001111
1101111011000100
1101111011000110
1101111011001110
1101111011000101
1101111011001111
1101111011001100
1101111011001111
1101111011001010
1101111011001100
1101111011001110
1101111011000111
1101111011000011
1101111011110111
1101111011001110
1101111011000110
1101111011001001
1101111011000011
1101111011001101
1101111011000101
1101111011001101
1101111011001110
1101111011001100
1101111011000011
1101111011000110
1101111011000010
1101111011000111
1101111011001010
1101111011000111
1101111011000011
1101111011001110
1101111011000011
1101111011110111
1101111011000010
1101111011000110
1101111011110111
1101111011001000
1101111011001100
1101111011000111
1101111011000110
1101111011000110
1101111011001100
1101111011001110
1101111011001100
1101111011001110
1101111011000101
1101111011000010
1101111011001010
1101111011000011
1101111011001001
1101111011000111
1101111011000101
1101111011001010
1101111011000010
1101111011000110
1101111011000011
1101111011001101
1101111011000100
1101111011001101
1101111011001001
1101111011001000
1101111011000011
1101111011001110
1101111011001010
1101111011001000
1101111011000011
1101111011000010
1101111011001101
1101111011001010
1101111011001000
1101111011001101
1101111011000101
1101111011001111
1101111011000101
1101111011001010
1101111011000101
1101111011001101
1101111011001011
1101111011110111
1101111011000111
1101111011001111
1101111011000111
1101111011000101
1101111011001011
1101111011001111
1101111011001010
1101111011001000
1101111011000111
1101111011000100
1101111011001101
1101111011110111
1101111011001101
1101111011000010
1101111011001010
1101111011001111
1101111011000110
1101111011000101
1101111011000111
1101111011001100
1101111011000110
1101111011001100
1101111011000100
1101111011000101
1101111011001011
1101111011000101
1101111011000010
1101111011000101
1101111011001010
1101111011000110
1101111011110111
1101111011001111
1101111011000010
1101111011110111
1101111011001110
1101111011001101
1101111011001111
1101111011001111
1101111011000111
1101111011001001
1101111011001101
1101111011001000
1101111011001111
1101111011001111
1101111011001111
1101111011001111
1101111011001100
1101111011000101
1101111011001000
1101111011000110
1101111011000101
1101111011001111
1101111011001110
1101111011001101
1101111011001001
1101111011001011
1101111011001110
1101111011000011
1101111011000110
1101111011001000
1101111011000101
1101111011001110
1101111011001101
1101111011001110
1101111011001000
1101111011000011
1101111011000100
1101111011001100
1101111011001111
1101111011001010
1101111011000010
1101111011000100
1101111011001100
1101111011000010
1101111011000110
1101111011000100
1101111011001111
1101111011001001
1101111011000011
1101111011110111
1101111011001010
1101111011110111
1101111011001000
1101111011001111
1101111011000110
1101111011000111
1101111011000101
1101111011001011
1101111011001011
1101111011000010
1101111011000100
1101111011001110
1101111011110111
1101111011110111
1101111011110111
1101111011001010
1101111011001001
1101111011001110
1101111011001100
1101111011001000
1101111011001111
1101111011001111
1101111011000101
1101111011001000
1101111011000010
1101111011001110
1101111011000011
1101111011000100
1101111011001101
1101111011000100
1101111011001110
1101111011000101
1101111011001100
1101111011000101
1101111011000100
1101111011001100
1101111011001111
1101111011001101
1101111011000110
1101111011110111
1101111011001101
1101111011001011
1101111011001100
1101111011001101
1101111011000101
1101111011000111
1101111011000111
1101111011001111
1101111011000100
1101111011001100
1101111011000010
1101111011001110
1101111011000111
1101111011001110
1101111011000111
1101111011001101
1101111011000010
1101111011001010
1101111011001101
1101111011000111
1101111011001010
1101111011001011
1101111011001101
1101111011001011
1101111011110111
1101111011001010
1101111011001011
1101111011110111
1101111011000010
1101111011001010
1101111011000100
1101111011110111
1101111011001100
1101111011001000
1101111011001001
1101111011000011
1101111011000101
1101111011000100
1101111011001100
1101111011110111
1101111011000110
1101111011110111
1101111011001000
1101111011001101
1101111011110111
1101111011001000
1101111011001110
1101111011000110
1101111011001110
1101111011001111
1101111011000010
1101111011000100
1101111011000110
1101111011000111
1101111011001111
1101111011000101
1101111011001110
1101111011000010
1101111011001000
1101111011001010
1101111011001000
1101111011001110
1101111011001011
1101111011001011
1101111011000111
1101111011001101
1101111011001101
1101111011001001
1101111011000111
1101111011001101
1101111011001000
1101111011000111
1101111011001110
1101111011110111
1101111011000101
1101111011000100
1101111011000111
1101111011001000
1101111011001000
1101111011000010
1101111011001110
1101111011001110
1101111011001000
1101111011001001
1101111011001010
1101111011110111
1101111011001011
1101111011000011
1101111011001011
1101111011001110
1101111011001101
1101111011000011
1101111011000010
1101111011001110
1101111011001100
1101111011001111
1101111011001001
1101111011000111
1101111011001001
1101111011001101
1101111011001110
1101111011001011
1101111011000101
1101111011110111
1101111011001110
1101111011001111
1101111011000101
1101111011001011
1101111011001110
1101111011000011
1101111011001000
1101111011001110
1101111011110111
1101111011000110
1101111011001000
1101111011000111
1101111011000011
1101111011001010
1101111011000010
1101111011001000
1101111011000110
1101111011001001
1101111011001110
1101111011110111
1101111011001011
1101111011001111
1101111011001011
1101111011110111
1101111011000101
1101111011001101
1101111011000100
1101111011110111
1101111011000110
1101111011000010
1101111011001110
1101111011001101
1101111011001010
1101111011001001
1101111011001101
1101111011001111
1101111011000111
1101111011001101
1101111011001000
1101111011000110
1101111011000011
1101111011001100
1101111011001010
1101111011000110
1101111011001110
1101111011000111
1101111011000100
1101111011001001
1101111011001001
1101111011001001
1101111011000100
1101111011000011
1101111011000110
1101111011000111
1101111011001000
1101111011001001
1101111011001011
1101111011001001
1101111011001000
1101111011000110
1101111011001101
1101111011001100
1101111011000100
1101111011110111
1101111011000011
1101111011000010
1101111011000101
1101111011001110
1101111011000011
1101111011000110
1101111011001111
1101111011001101
1101111011001000
1101111011000110
1101111011000100
1101111011001010
1101111011000100
1101111011000110
1101111011000110
1101111011001101
1101111011000100
1101111011001100
1101111011110111
1101111011000010
1101111011001100
1101111011001011
1101111011000100
1101111011001111
1101111011001000
1101111011110111
1101111011001111
1101111011001001
1101111011001100
1101111011000110
1101111011001001
1101111011001000
1101111011000111
1101111011000110
1101111011001101
1101111011001001
1101111011000101
1101111011000010
1101111011000101
1101111011000101
1101111011001010
1101111011000101
1101111011001000
1101111011001000
1101111011001100
1101111011001101
1101111011001101
1101111011001001
1101111011110111
1101111011001111
1101111011000101
1101111011000101
1101111011000101
1101111011000101
1101111011001001
1101111011000101
1101111011000010
1101111011000011
1101111011001011
1101111011000111
1101111011000010
1101111011001110
1101111011001100
1101111011001100
1101111011001101
1101111011110111
1101111011001101
1101111011000110
1101111011001110
1101111011000111
1101111011001000
1101111011000101
1101111011000110
1101111011001010
1101111011000101
1101111011001011
1101111011000111
1101111011110111
1101111011001010
1101111011001100
1101111011000011
1101111011001111
1101111011001100
1101111011110111
1101111011000010
1101111011000101
1101111011000100
1101111011001000
1101111011001111
1101111011001110
1101111011001011
1101111011001100
1101111011110111
1101111011001011
1101111011001001
1101111011000101
1101111011000100
1101111011001100
1101111011001111
1101111011000011
1101111011001011
1101111011000111
1101111011001100
1101111011000011
1101111011110111
1101111011001111
1101111011001011
1101111011000011
1101111011001100
1101111011000011
1101111011001100
1101111011001110
1101111011000011
1101111011000100
1101111011000011
1101111011000111
1101111011000010
1101111011000111
1101111011001100
1101111011001010
1101111011110111
1101111011001101
1101111011001001
1101111011001011
1101111011000110
1101111011000011
1101111011000011
1101111011001000
1101111011001101
1101111011110111
1101111011000010
1101111011000010
1101111011001011
1101111011001010
1101111011000110
1101111011001010
1101111011001101
1101111011000010
1101111011000100
1101111011000100
1101111011000100
1101111011001001
1101111011001001
1101111011000110
1101111011001110
1101111011110111
1101111011000100
1101111011000011
1101111011001001
1101111011001111
1101111011000010
1101111011000011
1101111011000010
1101111011001100
1101111011001010
1101111011000111
1101111011001110
1101111011000010
1101111011110111
1101111011000111
1101111011000110
1101111011001100
1101111011000010
1101111011110111
1101111011001001
1101111011001001
1101111011001010
1101111011000011
1101111011001001
1101111011000100
1101111011000111
1101111011001001
1101111011000110
1101111011000100
1101111011000101
1101111011000100
1101111011001100
1101111011001001
1101111011000010
1101111011000100
1101111011001111
1101111011001000
1101111011110111
1101111011001101
1101111011001110
1101111011001001
1101111011000101
1101111011001010
1101111011001101
1101111011000111
1101111011110111
1101111011001011
1101111011110111
1101111011000011
1101111011000111
1101111011110111
1101111011110111
1101111011001100
1101111011001000
1101111011000010
1101111011001000
1101111011000100
1101111011001010
1101111011001101
1101111011001010
1101111011110111
1101111011001011
1101111011000110
1101111011000101
1101111011001010
1101111011001110
1101111011000101
1101111011001011
1101111011110111
1101111011001111
1101111011000010
1101111011001011
1101111011000010
1101111011000110
1101111011001011
1101111011001001
1101111011110111
1101111011001001
1101111011000100
1101111011110111
1101111011001001
1101111011001011
1101111011000010
1101111011000111
1101111011001001
1101111011000101
1101111011001111
1101111011001101
1101111011000011
1101111011000101
1101111011000011
1101111011001010
1101111011000110
1101111011000100
1101111011000111
1101111011001101
1101111011000011
1101111011001011
1101111011001000
1101111011001010
1101111011000100
1101111011000100
1101111011000111
1101111011000100
1101111011000101
1101111011000111
1101111011000011
1101111011000011
1101111011001110
1101111011001000
1101111011000011
1101111011000110
1101111011001001
1101111011001010
1101111011000110
1101111011110111
1101111011000110
1101111011000110
1101111011001111
1101111011001100
1101111011000101
1101111011001001
1101111011000101
1101111011001000
1101111011000010
1101111011000110
1101111011001111
1101111011001111
1101111011001101
1101111011000101
1101111011000110
1101111011001001
1101111011000100
1101111011000100
1101111011001010
1101111011110111
1101111011000111
1101111011001101
1101111011001100
1101111011000100
1101111011001010
1101111011001100
1101111011001100
1101111011001010
1101111011001101
1101111011000100
1101111011000111
1101111011001100
1101111011001101
1101111011000100
1101111011001100
1101111011000010
1101111011000010
1101111011000101
1101111011000010
1101111011001000
1101111011000110
1101111011001010
1101111011001100
1101111011001110
1101111011001100
1101111011000111
1101111011001000
1101111011001110
1101111011000110
1101111011000100
1101111011001011
1101111011000101
1101111011110111
1101111011000111
1101111011000100
1101111011001111
1101111011000110
1101111011001010
1101111011000111
1101111011001110
1101111011001110
1101111011001010
1101111011001011
1101111011000011
1101111011110111
1101111011001000
1101111011001100
1101111011000110
1101111011001010
1101111011001111
1101111011000100
1101111011000110
1101111011001100
1101111011000110
1101111011000101
1101111011000100
1101111011001001
1101111011001101
1101111011001001
1101111011000010
1101111011000111
1101111011001000
1101111011001100
1101111011001001
1101111011000011
1101111011000111
1101111011001010
1101111011000111
1101111011001000
1101111011001101
1101111011001011
1101111011001101
1101111011000100
1101111011001010
1101111011001000
1101111011000111
1101111011000110
1101111011001000
1101111011001111
1101111011000100
1101111011001011
1101111011001101
1101111011110111
1101111011001100
1101111011110111
1101111011110111
1101111011001010
1101111011000111
1101111011001101
1101111011001010
1101111011001011
1101111011001101
1101111011000011
1101111011000110
1101111011000101
1101111011001001
1101111011000110
1101111011000011
1101111011001101
1101111011001110
1101111011000101
1101111011001000
1101111011001001
1101111011001111
1101111011000010
1101111011001101
1101111011000010
1101111011001100
1101111011001111
1101111011001100
1101111011001111
1101111011001011
1101111011001000
1101111011001111
1101111011000110
1101111011000111
1101111011001001
1101111011001011
1101111011000101
1101111011000010
1101111011001001
1101111011001101
1101111011001111
1101111011001000
1101111011001011
1101111011001011
1101111011000101
1101111011000110
1101111011001111
1101111011000100
1101111011001100
1101111011001011
1101111011000110
1101111011000111
1101111011110111
1101111011001100
1101111011001111
1101111011001111
1101111011001111
1101111011000110
1101111011000100
1101111011000111
1101111011000011
1101111011110111
1101111011000011
1101111011001011
1101111011001011
1101111011000011
1101111011001100
1101111011110111
1101111011001100
1101111011000011
1101111011000101
1101111011000110
1101111011000100
1101111011001100
1101111011000110
1101111011000111
1101111011110111
1101111011000011
1101111011000100
1101111011001000
1101111011001100
1101111011000110
1101111011110111
1101111011000010
1101111011000011
1101111011001110
1101111011000101
1101111011000011
1101111011001000
1101111011001100
1101111011001011
1101111011001110
1101111011000100
1101111011000111
1101111011001100
1101111011001100
1101111011001001
1101111011000101
1101111011000101
1101111011001100
1101111011000100
1101111011001100
1101111011001001
1101111011000010
1101111011000010
1101111011001001
1101111011001111
1101111011000110
1101111011000010
1101111011000010
1101111011001110
1101111011001110
1101111011000110
1101111011001110
1101111011000010
1101111011000111
1101111011000010
1101111011000011
1101111011001101
1101111011001100
1101111011001011
1101111011001110
1101111011110111
1101111011000100
1101111011000101
1101111011001000
1101111011000100
1101111011001100
1101111011000110
1101111011000010
1101111011000010
1101111011000110
1101111011001111
1101111011001000
1101111011001000
1101111011001101
1101111011001110
1101111011000110
1101111011000100
1101111011001011
1101111011001010
1101111011001110
1101111011001000
1101111011000110
1101111011001110
1101111011000100
1101111011110111
1101111011001101
1101111011001101
1101111011001010
1101111011000101
1101111011001110
1101111011001110
1101111011110111
1101111011001101
1101111011000100
1101111011000011
1101111011001000
1101111011001111
1101111011000110
1101111011001100
1101111011001001
1101111011001110
1101111011001101
1101111011001101
1101111011001111
1101111011001101
1101111011001011
1101111011001000
1101111011001011
1101111011001110
1101111011000011
1101111011001000
1101111011001100
1101111011001101
1101111011001011
1101111011000101
1101111011001010
1101111011000011
1101111011001001
1101111011001010
1101111011001101
1101111011000101
1101111011000011
1101111011000101
1101111011001101
1101111011001001
1101111011001001
1101111011000101
1101111011000011
1101111011000010
1101111011000111
1101111011001111
1101111011001101
1101111011000010
1101111011001111
1101111011001110
1101111011000010
1101111011000011
1101111011001111
1101111011000111
1101111011000011
1101111011001100
1101111011000101
1101111011001111
1101111011001011
1101111011001011
1101111011001111
1101111011000111
1101111011000010
1101111011000110
1101111011001010
1101111011001010
1101111011001011
1101111011001100
1101111011001001
1101111011000110
1101111011001111
1101111011001001
1101111011001100
1101111011110111
1101111011001011
1101111011001010
1101111011001100
1101111011110111
1101111011001010
1101111011001010
1101111011000010
1101111011000010
1101111011001111
1101111011001100
1101111011000011
1101111011001100
1101111011000100
1101111011000100
1101111011001100
1101111011001011
1101111011001111
1101111011000011
1101111011000110
1101111011000111
1101111011000110
1101111011001111
1101111011001100
1101111011000011
1101111011001110
1101111011110111
1101111011001110
1101111011001000
1101111011001111
1101111011001100
1101111011000101
1101111011001000
1101111011000010
1101111011000100
1101111011000101
1101111011001110
1101111011001010
1101111011001110
1101111011110111
1101111011001111
1101111011001010
1101111011001100
1101111011000011
1101111011001111
1101111011110111
1101111011000100
1101111011001111
1101111011000110
1101111011001101
1101111011000010
1101111011001011
1101111011001111
1101111011001110
1101111011000100
1101111011000010
1101111011000010
1101111011000101
1101111011000011
1101111011001011
1101111011001101
1101111011110111
1101111011001011
1101111011001111
1101111011001000
1101111011001001
1101111011000011
1101111011001111
1101111011001110
1101111011001100
1101111011001101
1101111011110111
1101111011001001
1101111011000101
1101111011000111
1101111011000101
1101111011000011
1101111011000010
1101111011001011
1101111011001100
1101111011110111
1101111011001000
1101111011000101
1101111011000101
1101111011000010
1101111011000010
1101111011001000
1101111011001001
1101111011000101
1101111011001100
1101111011001100
1101111011000011
1101111011001000
1101111011001000
1101111011001000
1101111011000100
1101111011110111
1101111011001100
1101111011001101
1101111011000100
1101111011001101
1101111011000111
1101111011110111
1101111011000111
1101111011001111
1101111011000100
1101111011000010
1101111011001110
1101111011110111
1101111011000100
1101111011000110
1101111011000011
1101111011001001
1101111011000111
1101111011000110
1101111011000110
1101111011001110
1101111011110111
1101111011001001
1101111011110111
1101111011000100
1101111011000010
1101111011001011
1101111011001011
1101111011001011
1101111011001101
1101111011000101
1101111011000100
1101111011001110
1101111011000110
1101111011110111
1101111011000110
1101111011000101
1101111011110111
1101111011000110
1101111011001010
1101111011000011
1101111011110111
1101111011001000
1101111011000111
1101111011001001
1101111011001100
1101111011001011
1101111011001000
1101111011001000
1101111011001111
1101111011001001
1101111011001011
1101111011001010
1101111011000011
1101111011001100
1101111011000111
1101111011001001
1101111011000010
1101111011000111
1101111011001111
1101111011001011
1101111011001000
1101111011001110
1101111011001010
1101111011000011
1101111011000101
1101111011001110
1101111011001000
1101111011001101
1101111011001011
1101111011001110
1101111011001000
1101111011001011
1101111011001101
1101111011000010
1101111011000111
1101111011000011
1101111011110111
1101111011001111
1101111011000101
1101111011000101
1101111011110111
1101111011001111
1101111011001110
1101111011000011
1101111011001101
1101111011001001
1101111011001111
1101111011000100
1101111011001001
1101111011000011
1101111011000101
1101111011001100
1101111011000101
1101111011000111
1101111011001100
1101111011001100
1101111011001111
1101111011001110
1101111011001011
1101111011001010
1101111011000111
1101111011001000
1101111011000011
1101111011001110
1101111011001000
1101111011001100
1101111011001110
1101111011000010
1101111011000011
1101111011000011
1101111011001000
1101111011001011
1101111011001100
1101111011001100
1101111011001000
1101111011000101
1101111011000011
1101111011001010
1101111011001110
1101111011001101
1101111011000010
1101111011001010
1101111011001111
1101111011000101
1101111011000011
1101111011001011
1101111011000011
1101111011000101
1101111011000110
1101111011000110
1101111011001011
1101111011000101
1101111011001110
1101111011000101
1101111011000111
1101111011001010
1101111011001100
1101111011110111
1101111011001011
1101111011000101
1101111011000100
1101111011000111
1101111011110111
1101111011001100
1101111011110111
1101111011000110
1101111011001000
1101111011001010
1101111011001010
1101111011001000
1101111011000110
1101111011001110
1101111011001000
1101111011001101
1101111011001111
1101111011001101
1101111011000110
1101111011001101
1101111011000011
1101111011001101
1101111011001101
1101111011001110
1101111011000011
1101111011001110
1101111011110111
1101111011110111
1101111011000011
1101111011000011
1101111011001001
1101111011001001
1101111011001000
1101111011000101
1101111011001001
1101111011001101
1101111011000110
1101111011000100
1101111011001110
1101111011001001
1101111011000111
1101111011001010
1101111011001110
1101111011000011
1101111011001000
1101111011001100
1101111011001101
1101111011001111
1101111011001100
1101111011001010
1101111011001110
1101111011001100
1101111011001101
1101111011000101
1101111011001100
1101111011000100
1101111011000100
1101111011000101
1101111011001111
1101111011001011
1101111011000010
1101111011000110
1101111011000010
1101111011001110
1101111011000101
1101111011000101
1101111011000110
1101111011000101
1101111011000100
1101111011001101
1101111011001101
1101111011001010
1101111011110111
1101111011001101
1101111011000011
1101111011000010
1101111011000111
1101111011001111
1101111011001111
1101111011110111
1101111011001001
1101111011000100
1101111011000101
1101111011000100
1101111011000011
1101111011110111
1101111011001111
1101111011000110
1101111011000100
1101111011110111
1101111011000111
1101111011001000
1101111011001001
1101111011000110
1101111011001100
1101111011001101
1101111011000110
1101111011001010
1101111011110111
1101111011001011
1101111011001101
1101111011001100
1101111011001000
1101111011001011
1101111011001101
1101111011001011
1101111011000111
1101111011001011
1101111011000011
1101111011000101
1101111011001010
1101111011001000
1101111011000110
1101111011000110
1101111011001000
1101111011000010
1101111011001000
1101111011001100
1101111011000110
1101111011000110
1101111011000110
1101111011000010
1101111011001111
1101111011000011
1101111011001011
1101111011001101
1101111011001011
1101111011001001
1101111011000110
1101111011001001
1101111011001100
1101111011001011
1101111011000101
1101111011001010
1101111011001111
1101111011001100
1101111011000111
1101111011001010
1101111011001111
1101111011001110
1101111011000010
1101111011001000
1101111011001110
1101111011000111
1101111011001111
1101111011000010
1101111011110111
1101111011001100
1101111011001111
1101111011001001
1101111011000011
1101111011001111
1101111011001010
1101111011000010
1101111011001010
1101111011000100
1101111011001110
1101111011001110
1101111011001110
1101111011001110
1101111011001111
1101111011110111
1101111011110111
1101111011000011
1101111011110111
1101111011000100
1101111011001111
1101111011001000
1101111011001111
1101111011000101
1101111011001110
1101111011000111
1101111011001110
1101111011001010
1101111011001101
1101111011001001
1101111011110111
1101111011000010
1101111011000011
1101111011001010
1101111011001100
1101111011000101
1101111011001110
1101111011000101
1101111011001110
1101111011000111
1101111011001101
1101111011001010
1101111011000101
1101111011001011
1101111011000111
1101111011001000
1101111011000111
1101111011000010
1101111011001010
1101111011001010
1101111011001101
1101111011000111
1101111011000111
1101111011001010
1101111011000010
1101111011000101
1101111011000110
1101111011001001
1101111011000010
1101111011001010
1101111011001011
1101111011001110
1101111011001011
1101111011001111
1101111011000010
1101111011000100
1101111011001101
1101111011000101
1101111011001011
1101111011000100
1101111011000110
1101111011000111
1101111011000111
1101111011001000
1101111011110111
1101111011001001
1101111011000110
1101111011001101
1101111011001101
1101111011000111
1101111011000110
1101111011000101
1101111011000101
1101111011000010
1101111011000100
1101111011000010
1101111011110111
1101111011001010
1101111011000111
1101111011000101
1101111011001101
1101111011110111
1101111011001110
1101111011000011
1101111011110111
1101111011000110
1101111011000101
1101111011001100
1101111011000101
1101111011001010
1101111011001110
1101111011000110
1101111011001111
1101111011001001
1101111011001010
1101111011000011
1101111011001111
1101111011000110
1101111011001001
1101111011000010
1101111011001001
1101111011001111
1101111011001101
1101111011000111
1101111011001010
1101111011001110
1101111011001010
1101111011001001
1101111011001010
1101111011001110
1101111011001100
1101111011001101
1101111011001111
1101111011001110
1101111011000010
1101111011000101
1101111011000111
1101111011000011
1101111011001010
1101111011001100
1101111011001010
1101111011000010
1101111011001010
1101111011001011
1101111011001101
1101111011000100
1101111011110111
1101111011110111
1101111011110111
1101111011000100
1101111011000100
1101111011000100
1101111011001011
1101111011001010
1101111011110111
1101111011001010
1101111011000110
1101111011001110
1101111011001111
1101111011001110
1101111011000111
1101111011001011
1101111011001110
1101111011000110
1101111011001101
1101111011001100
1101111011000011
1101111011000011
1101111011001110
1101111011000011
1101111011000111
1101111011001001
1101111011001100
1101111011000111
1101111011001110
1101111011000100
1101111011001110
1101111011001010
1101111011000110
1101111011000100
1101111011001010
1101111011000100
1101111011000010
1101111011110111
1101111011001100
1101111011000010
1101111011001011
1101111011001110
1101111011001010
1101111011000100
1101111011001100
1101111011001111
1101111011001101
1101111011000110
1101111011001000
1101111011000011
1101111011001101
1101111011001110
1101111011001011
1101111011001100
1101111011001011
1101111011001100
1101111011000010
1101111011001111
1101111011000100
1101111011001100
1101111011000110
1101111011000110
1101111011001010
1101111011001001
1101111011001011
1101111011000101
1101111011110111
1101111011000101
1101111011000101
1101111011001111
1101111011001111
1101111011001000
1101111011000100
1101111011000100
1101111011110111
1101111011000101
1101111011001001
1101111011110111
1101111011000010
1101111011000010
1101111011001100
1101111011000101
1101111011001001
1101111011001000
1101111011001101
1101111011001100
1101111011001000
1101111011001011
1101111011000010
1101111011001001
1101111011001111
1101111011000110
1101111011000110
1101111011001110
1101111011000011
1101111011110111
1101111011000110
1101111011001101
1101111011001111
1101111011001011
1101111011001110
1101111011001110
1101111011001001
1101111011000011
1101111011001101
1101111011000110
1101111011001011
1101111011000010
1101111011000111
1101111011001111
1101111011001000
1101111011000111
1101111011000010
1101111011001110
1101111011000010
1101111011000110
1101111011000111
1101111011001000
1101111011001000
1101111011000110
1101111011000111
1101111011001110
1101111011000111
1101111011000111
1101111011001101
1101111011001111
1101111011001111
1101111011001010
1101111011001101
1101111011001100
1101111011000110
1101111011000111
1101111011110111
1101111011001001
1101111011001011
1101111011110111
1101111011001110
1101111011001110
1101111011000010
1101111011000100
1101111011001101
1101111011001010
1101111011000100
1101111011001110
1101111011001010
1101111011001010
1101111011110111
1101111011000110
1101111011001000
1101111011001110
1101111011000100
1101111011001111
1101111011001011
1101111011000111
1101111011001011
1101111011001100
1101111011001111
1101111011000111
1101111011001101
1101111011000100
1101111011000111
1101111011000101
1101111011000101
1101111011110111
1101111011000011
1101111011110111
1101111011000110
1101111011000111
1101111011000011
1101111011000010
1101111011001011
1101111011110111
1101111011000111
1101111011000010
1101111011001000
1101111011001101
1101111011001110
1101111011000111
1101111011000101
1101111011000111
1101111011000101
1101111011001100
1101111011001100
1101111011001101
1101111011001011
1101111011000101
1101111011001100
1101111011001111
1101111011000010
1101111011001011
1101111011110111
1101111011001010
1101111011001110
1101111011001111
1101111011001001
1101111011001001
1101111011000011
1101111011000011
1101111011110111
1101111011001010
1101111011001111
1101111011001000
1101111011001110
1101111011000010
1101111011001000
1101111011001000
1101111011001000
1101111011001010
1101111011000101
1101111011001001
1101111011001101
1101111011001101
1101111011001000
1101111011001001
1101111011000101
1101111011000110
1101111011000100
1101111011000100
1101111011001001
1101111011000111
1101111011000011
1101111011110111
1101111011001000
1101111011000111
1101111011000101
1101111011000101
1101111011001010
1101111011000111
1101111011001111
1101111011000011
1101111011110111
1101111011000110
1101111011000010
1101111011001000
1101111011000110
1101111011001000
1101111011001001
1101111011001110
1101111011001110
1101111011001010
1101111011000010
1101111011001110
1101111011000111
1101111011001011
1101111011001010
1101111011000100
1101111011001010
1101111011001100
1101111011000100
1101111011001100
1101111011110111
1101111011000110
1101111011000111
1101111011001100
1101111011001110
1101111011000011
1101111011001000
1101111011001110
1101111011001110
1101111011001101
1101111011000111
1101111011001101
1101111011000110
1101111011001110
1101111011000110
1101111011001010
1101111011001010
1101111011001100
1101111011110111
1101111011000111
1101111011001110
1101111011000010
1101111011000100
1101111011000010
1101111011001001
1101111011001111
1101111011000101
1101111011001100
1101111011001010
1101111011000100
1101111011110111
1101111011001001
1101111011001111
1101111011001010
1101111011001101
1101111011001000
1101111011000011
1101111011000101
1101111011000011
1101111011001000
1101111011001100
1101111011000100
1101111011000011
1101111011110111
1101111011001110
1101111011001011
1101111011001000
1101111011000100
1101111011001110
1101111011001000
1101111011001000
1101111011001111
1101111011001000
1101111011001010
1101111011000111
1101111011001111
1101111011001101
1101111011001001
1101111011001001
1101111011000011
1101111011001001
1101111011000100
1101111011001100
1101111011001001
1101111011000110
1101111011001100
1101111011001101
1101111011110111
1101111011000101
1101111011110111
1101111011001100
1101111011000011
1101111011001101
1101111011001000
1101111011001000
1101111011110111
1101111011001010
1101111011000110
1101111011001110
1101111011001111
1101111011001000
1101111011000111
1101111011000110
1101111011001111
1101111011001010
1101111011000110
1101111011000010
1101111011000101
1101111011001110
1101111011001110
1101111011001100
1101111011000011
1101111011000110
1101111011000111
1101111011001001
1101111011001100
1101111011001000
1101111011001110
1101111011000100
1101111011001001
1101111011001101
1101111011001001
1101111011001000
1101111011001000
1101111011001010
1101111011110111
1101111011110111
1101111011000100
1101111011001111
1101111011001001
1101111011001111
1101111011110111
1101111011001101
1101111011110111
1101111011110111
1101111011001011
1101111011000010
1101111011000110
1101111011000111
1101111011000111
1101111011000111
1101111011001010
1101111011000100
1101111011001010
1101111011000011
1101111011001110
1101111011001010
1101111011001111
1101111011000011
1101111011000101
1101111011001010
1101111011000010
1101111011001011
1101111011001111
1101111011000011
1101111011000111
1101111011001110
1101111011110111
1101111011001111
1101111011000110
1101111011000100
1101111011001010
1101111011000010
1101111011001010
1101111011110111
1101111011001110
1101111011000010
1101111011000100
1101111011110111
1101111011001111
1101111011001011
1101111011001000
1101111011001110
1101111011001011
1101111011001100
1101111011001110
1101111011110111
1101111011001101
1101111011000101
1101111011000101
1101111011000101
1101111011000011
1101111011001110
1101111011110111
1101111011110111
1101111011001111
1101111011110111
1101111011001100
1101111011001101
1101111011000110
1101111011001000
1101111011001010
1101111011001001
1101111011001010
1101111011000100
1101111011001011
1101111011000110
1101111011001000
1101111011001100
1101111011110111
1101111011001001
1101111011000011
1101111011001011
1101111011000100
1101111011001110
1101111011000100
1101111011001000
1101111011000011
1101111011000011
1101111011000100
1101111011001101
1101111011110111
1101111011001000
1101111011001000
1101111011001010
1101111011110111
1101111011001000
1101111011001010
1101111011001110
1101111011001100
1101111011001011
1101111011001110
1101111011001010
1101111011000011
1101111011001111
1101111011000101
1101111011001100
1101111011000101
1101111011001010
1101111011000100
1101111011000110
1101111011001001
1101111011000100
1101111011001111
1101111011001100
1101111011000101
1101111011000011
1101111011001011
1101111011001000
1101111011110111
1101111011000011
1101111011000111
1101111011001110
1101111011000100
1101111011001100
1101111011110111
1101111011001101
1101111011000011
1101111011001101
1101111011001011
1101111011000110
1101111011000011
1101111011110111
1101111011000111
1101111011000101
1101111011000010
1101111011000101
1101111011000011
1101111011001110
1101111011001101
1101111011001010
1101111011000110
1101111011001101
1101111011000101
1101111011001010
1101111011001111
1101111011001011
1101111011110111
1101111011000110
1101111011001111
1101111011000101
1101111011001111
1101111011000011
1101111011001100
1101111011000111
1101111011001001
1101111011000010
1101111011000100
1101111011001111
1101111011110111
1101111011110111
1101111011000011
1101111011000101
1101111011001001
1101111011001011
1101111011000110
1101111011001010
1101111011110111
1101111011001100
1101111011001101
1101111011001001
1101111011000110
1101111011001011
1101111011001001
1101111011001100
1101111011001001
1101111011001111
1101111011001011
1101111011000111
1101111011000011
1101111011001011
1101111011001110
1101111011000101
1101111011000110
1101111011001010
1101111011000101
1101111011000010
1101111011000100
1101111011001101
1101111011001001
1101111011001001
1101111011000100
1101111011001101
1101111011001000
1101111011001110
1101111011000010
1101111011000101
1101111011001010
1101111011001101
1101111011001101
1101111011000100
1101111011001010
1101111011000111
1101111011001100
1101111011001011
1101111011000010
1101111011001010
1101111011001110
1101111011001011
1101111011001001
1101111011000010
1101111011110111
1101111011000101
1101111011110111
1101111011001000
1101111011000111
1101111011001011
1101111011001011
1101111011000010
1101111011001010
1101111011001010
1101111011001110
1101111011001001
1101111011000101
1101111011001110
1101111011000110
1101111011110111
1101111011000100
1101111011001111
1101111011001011
1101111011000100
1101111011001010
1101111011000100
1101111011000110
1101111011001010
1101111011000110
1101111011001000
1101111011001101
1101111011001001
1101111011000100
1101111011000101
1101111011001000
1101111011000110
1101111011000101
1101111011000010
1101111011001001
1101111011001101
1101111011000011
1101111011000100
1101111011000011
1101111011001100
1101111011001111
1101111011001101
1101111011000011
1101111011001011
1101111011000010
1101111011000111
1101111011000110
1101111011001011
1101111011001010
1101111011001100
1101111011000110
1101111011001100
1101111011000100
1101111011000111
1101111011000100
1101111011001111
1101111011000101
1101111011000110
1101111011110111
1101111011000010
1101111011000111
1101111011001011
1101111011001000
1101111011001001
1101111011000011
1101111011001111
1101111011001101
1101111011000111
1101111011000010
1101111011001011
1101111011001101
1101111011001001
1101111011001100
1101111011000011
1101111011000110
1101111011001101
1101111011001111
1101111011110111
1101111011001110
1101111011000010
1101111011001001
1101111011001000
1101111011001011
1101111011000101
1101111011001000
1101111011000101
1101111011001100
1101111011000011
1101111011110111
1101111011001000
1101111011001000
1101111011000011
1101111011001111
1101111011001110
1101111011001101
1101111011000101
1101111011001011
1101111011000100
1101111011001010
1101111011001110
1101111011001111
1101111011001110
1101111011001001
1101111011001110
1101111011000111
1101111011000100
1101111011001000
1101111011001111
1101111011000100
1101111011000110
1101111011001000
1101111011000110
1101111011001000
1101111011000011
1101111011000011
1101111011000101
1101111011110111
1101111011001000
1101111011001010
1101111011001101
1101111011001011
1101111011000011
1101111011000011
1101111011001100
1101111011110111
1101111011001111
1101111011000101
1101111011110111
1101111011000101
1101111011001111
1101111011001100
1101111011001101
1101111011001000
1101111011001100
1101111011001001
1101111011001011
1101111011000100
1101111011001011
1101111011001111
1101111011000111
1101111011000100
1101111011001001
1101111011001110
1101111011000111
1101111011000100
1101111011001011
1101111011000110
1101111011001101
1101111011000010
1101111011001100
1101111011000111
1101111011001000
1101111011000101
1101111011001001
1101111011000011
1101111011001100
1101111011001011
1101111011000110
1101111011001110
1101111011001010
1101111011001111
1101111011000100
1101111011001111
1101111011001111
1101111011000101
1101111011001010
1101111011110111
1101111011001100
1101111011000100
1101111011001110
1101111011000110
1101111011001110
1101111011001111
1101111011001011
1101111011000111
1101111011000011
1101111011001001
1101111011000101
1101111011001011
1101111011001010
1101111011001011
1101111011001101
1101111011001100
1101111011000100
1101111011001110
1101111011001100
1101111011000010
1101111011001000
1101111011001110
1101111011000100
1101111011000100
1101111011000100
1101111011000101
1101111011000010
1101111011001111
1101111011000110
1101111011001101
1101111011000100
1101111011001011
1101111011000100
1101111011001010
1101111011001010
1101111011000101
1101111011000011
1101111011001011
1101111011001100
1101111011000100
1101111011000111
1101111011001100
1101111011001110
1101111011000010
1101111011000110
1101111011001111
1101111011001001
1101111011000010
1101111011001111
1101111011000110
1101111011000011
1101111011000111
1101111011000011
1101111011000110
1101111011001101
1101111011001010
1101111011001101
1101111011001100
1101111011001101
1101111011001001
1101111011001101
1101111011001010
1101111011001100
1101111011000011
1101111011001001
1101111011000010
1101111011001110
1101111011000010
1101111011000110
1101111011001110
1101111011001011
1101111011000100
1101111011001100
1101111011000010
1101111011000110
1101111011000100
1101111011001000
1101111011001101
1101111011110111
1101111011000011
1101111011000110
1101111011001101
1101111011110111
1101111011001001
1101111011001110
1101111011001111
1101111011001011
1101111011000110
1101111011000011
1101111011000011
1101111011000011
1101111011001000
1101111011110111
1101111011001010
1101111011110111
1101111011000101
1101111011000010
1101111011001100
1101111011001111
1101111011001001
1101111011000110
1101111011001110
1101111011001101
1101111011001100
1101111011001010
1101111011001110
1101111011000100
1101111011001100
1101111011000111
1101111011001010
1101111011001110
1101111011001100
1101111011001001
1101111011110111
1101111011001011
1101111011000111
1101111011110111
1101111011000100
1101111011000011
1101111011001001
1101111011110111
1101111011001010
1101111011000111
1101111011001101
1101111011000110
1101111011001110
1101111011001101
1101111011000110
1101111011001001
1101111011001001
1101111011001001
1101111011001101
1101111011001001
1101111011000111
1101111011001000
1101111011001111
1101111011000110
1101111011000101
1101111011000101
1101111011000100
1101111011000011
1101111011001000
1101111011001000
1101111011000011
1101111011110111
1101111011110111
1101111011000110
1101111011000101
1101111011001011
1101111011001111
1101111011000110
1101111011000110
1101111011001100
1101111011001101
1101111011000011
1101111011000010
1101111011001011
1101111011000100
1101111011001111
1101111011000110
1101111011110111
1101111011000100
1101111011001111
1101111011001010
1101111011001110
1101111011001101
1101111011110111
1101111011000110
1101111011001101
1101111011000100
1101111011110111
1101111011000110
1101111011000100
1101111011000101
1101111011001100
1101111011001101
1101111011001011
1101111011001000
1101111011001110
1101111011000111
1101111011001110
1101111011001101
1101111011001110
1101111011001111
1101111011000111
1101111011001010
1101111011000101
1101111011110111
1101111011001001
1101111011001101
1101111011000110
1101111011001001
1101111011110111
1101111011001100
1101111011001101
1101111011001100
1101111011001111
1101111011000101
1101111011001000
1101111011000110
1101111011000111
1101111011001110
1101111011001111
1101111011000010
1101111011001110
1101111011001001
1101111011001101
1101111011000011
1101111011001100
1101111011001011
1101111011001110
1101111011001111
1101111011001100
1101111011001000
1101111011000110
1101111011110111
1101111011000110
1101111011001011
1101111011001110
1101111011000010
1101111011001011
1101111011000100
1101111011000011
1101111011000011
1101111011001011
1101111011000111
1101111011000111
1101111011001000
1101111011000010
1101111011001010
1101111011001111
1101111011000010
1101111011001110
1101111011001001
1101111011001111
1101111011001000
1101111011001011
1101111011000100
1101111011000011
1101111011001100
1101111011001111
1101111011000111
1101111011110111
1101111011001001
1101111011000111
1101111011001001
1101111011001011
1101111011000110
1101111011110111
1101111011000010
1101111011001011
1101111011001001
1101111011000110
1101111011001101
1101111011000110
1101111011001101
1101111011000011
1101111011001001
1101111011001010
1101111011001001
1101111011001100
1101111011000010
1101111011001111
1101111011001101
1101111011001101
1101111011001110
1101111011001011
1101111011001010
1101111011001010
1101111011001110
1101111011001101
1101111011000110
1101111011001011
1101111011001110
1101111011000100
1101111011000110
1101111011000100
1101111011000010
1101111011000101
1101111011000101
1101111011000101
1101111011001011
1101111011000011
1101111011001001
1101111011001101
1101111011000101
1101111011000111
1101111011000100
1101111011001100
1101111011000110
1101111011001100
1101111011001101
1101111011001110
1101111011000011
1101111011001000
1101111011001111
1101111011001000
1101111011000110
1101111011000011
1101111011110111
1101111011110111
1101111011000011
1101111011000101
1101111011001101
1101111011000110
1101111011001010
1101111011001100
1101111011000110
1101111011001101
1101111011000101
1101111011000010
1101111011001000
1101111011000010
1101111011001001
1101111011001101
1101111011001100
1101111011000101
1101111011001010
1101111011000111
1101111011001100
1101111011001110
1101111011001000
1101111011000011
1101111011000100
1101111011000111
1101111011000111
1101111011110111
1101111011000101
1101111011001101
1101111011000100
1101111011001101
1101111011001110
1101111011001110
1101111011001000
1101111011001001
1101111011000011
1101111011000110
1101111011001111
1101111011001000
1101111011001110
1101111011000010
1101111011000111
1101111011001011
1101111011001110
1101111011001010
1101111011000111
1101111011001011
1101111011000110
1101111011000101
1101111011110111
1101111011000111
1101111011110111
1101111011001110
1101111011000110
1101111011000111
1101111011000100
1101111011001101
1101111011000100
1101111011000011
1101111011000010
1101111011001001
1101111011000011
1101111011001100
1101111011001101
1101111011000010
1101111011001100
1101111011001100
1101111011001101
1101111011001011
1101111011001011
1101111011000101
1101111011000101
1101111011000110
1101111011000010
1101111011001001
1101111011001100
1101111011001010
1101111011000110
1101111011001010
1101111011000101
1101111011001011
1101111011001110
1101111011001000
1101111011110111
1101111011001100
1101111011001011
1101111011000101
1101111011110111
1101111011110111
1101111011001110
1101111011000011
1101111011001100
1101111011000110
1101111011001010
1101111011001110
1101111011001101
1101111011000011
1101111011001101
1101111011000101
1101111011000110
1101111011001100
1101111011001111
1101111011000100
1101111011000100
1101111011110111
1101111011000100
1101111011001101
1101111011000100
1101111011110111
1101111011001110
1101111011001101
1101111011001111
1101111011110111
1101111011001001
1101111011000110
1101111011001100
1101111011001111
1101111011001110
1101111011000010
1101111011000010
1101111011001011
1101111011110111
1101111011000011
1101111011001100
1101111011001101
1101111011001001
1101111011001111
1101111011110111
1101111011001011
1101111011110111
1101111011000110
1101111011001000
1101111011001000
1101111011000110
1101111011001010
1101111011001010
1101111011000110
1101111011001010
1101111011001111
1101111011000100
1101111011001011
1101111011000010
1101111011000111
1101111011001000
1101111011000010
1101111011110111
1101111011001110
1101111011001101
1101111011001111
1101111011001110
1101111011001101
1101111011000100
1101111011000101
1101111011000100
1101111011000101
1101111011000110
1101111011001000
1101111011000100
1101111011001110
1101111011001101
1101111011000101
1101111011001111
1101111011000110
1101111011001000
1101111011000010
1101111011001010
1101111011001011
1101111011000011
1101111011000011
1101111011001011
1101111011000101
1101111011000100
1101111011000110
1101111011001101
1101111011001001
1101111011000011
1101111011000100
1101111011001001
1101111011000101
1101111011000101
1101111011000100
1101111011001010
1101111011000110
1101111011001001
1101111011001001
1101111011001100
1101111011000100
1101111011000011
1101111011110111
1101111011001111
1101111011000010
1101111011000110
1101111011001100
1101111011000101
1101111011001000
1101111011001101
1101111011000111
1101111011001100
1101111011001110
1101111011001111
1101111011000100
1101111011001011
1101111011000101
1101111011001101
1101111011000110
1101111011001111
1101111011001011
1101111011001001
1101111011000010
1101111011001100
1101111011001011
1101111011001000
1101111011001011
1101111011001100
1101111011000010
1101111011000111
1101111011110111
1101111011001111
1101111011000101
1101111011001011
1101111011000010
1101111011001000
1101111011001100
1101111011001101
1101111011000111
1101111011000110
1101111011001100
1101111011000110
1101111011110111
1101111011000111
1101111011001100
1101111011001101
1101111011000101
1101111011000110
1101111011001011
1101111011001111
1101111011001001
1101111011000110
1101111011000101
1101111011000011
1101111011000100
1101111011001001
1101111011001011
1101111011001000
1101111011000010
1101111011001010
1101111011001011
1101111011001100
1101111011000101
1101111011000010
1101111011000010
1101111011000010
1101111011000011
1101111011000010
1101111011000010
1101111011001011
1101111011000010
1101111011001101
1101111011110111
1101111011001100
1101111011000100
1101111011000100
1101111011001111
1101111011001010
1101111011000111
1101111011001111
1101111011000101
1101111011000110
1101111011000111
1101111011110111
1101111011001011
1101111011001010
1101111011000101
1101111011000011
1101111011001000
1101111011001000
1101111011000100
1101111011001111
1101111011001100
1101111011001110
1101111011001100
1101111011001011
1101111011001001
1101111011000100
1101111011001100
1101111011000111
1101111011001001
1101111011001000
1101111011001001
1101111011000010
1101111011000100
1101111011000100
1101111011001111
1101111011001100
1101111011000011
1101111011001110
1101111011000101
1101111011001111
1101111011001101
1101111011000100
1101111011000111
1101111011000110
1101111011001000
1101111011000111
1101111011001100
1101111011001110
1101111011000010
1101111011001111
1101111011000111
1101111011001011
1101111011001111
1101111011001111
1101111011000100
1101111011000010
1101111011001011
1101111011000010
1101111011000111
1101111011000101
1101111011001000
1101111011000111
1101111011000101
1101111011000010
1101111011110111
1101111011001100
1101111011001110
1101111011001101
1101111011001100
1101111011000110
1101111011001110
1101111011001011
1101111011001011
1101111011000100
1101111011000100
1101111011000111
1101111011001101
1101111011000101
1101111011000111
1101111011001111
1101111011000101
1101111011000110
1101111011000111
1101111011001010
1101111011000010
1101111011000111
1101111011000011
1101111011110111
1101111011001110
1101111011001111
1101111011001101
1101111011000100
1101111011001100
1101111011001110
1101111011001011
1101111011001110
1101111011001100
1101111011000110
1101111011000011
1101111011001110
1101111011001000
1101111011001001
1101111011001010
1101111011110111
1101111011000100
1101111011000111
1101111011000110
1101111011001011
1101111011000010
1101111011000111
1101111011000110
1101111011000101
1101111011000110
1101111011001110
1101111011001110
1101111011000011
1101111011110111
1101111011001101
1101111011001010
1101111011001101
1101111011001110
1101111011001000
1101111011000110
1101111011000010
1101111011000111
1101111011001101
1101111011001110
1101111011001000
1101111011110111
1101111011110111
1101111011001111
1101111011001110
1101111011001100
1101111011001001
1101111011001000
1101111011001010
1101111011000011
1101111011001000
1101111011001001
1101111011001100
1101111011001110
1101111011001001
1101111011000100
1101111011000111
1101111011001110
1101111011000011
1101111011000011
1101111011001001
1101111011000110
1101111011110111
1101111011110111
1101111011001000
1101111011001011
1101111011001010
1101111011000111
1101111011000011
1101111011000101
1101111011001000
1101111011001011
1101111011110111
1101111011001001
1101111011000011
1101111011001010
1101111011000101
1101111011001110
1101111011001110
1101111011001001
1101111011001011
1101111011001111
1101111011001001
1101111011000111
1101111011001111
1101111011110111
1101111011001111
1101111011001101
1101111011001101
1101111011001000
1101111011000100
1101111011001101
1101111011000101
1101111011001000
1101111011001010
1101111011000011
1101111011001001
1101111011001111
1101111011001010
1101111011000011
1101111011000111
1101111011001011
1101111011001001
1101111011001101
1101111011001010
1101111011001110
1101111011001000
1101111011000111
1101111011000011
1101111011001111
1101111011001000
1101111011001000
1101111011001011
1101111011001111
1101111011001110
1101111011001100
1101111011001101
1101111011000101
1101111011001111
1101111011001100
1101111011000111
1101111011001010
1101111011001001
1101111011001001
1101111011001001
1101111011001110
1101111011001010
1101111011000011
1101111011001001
1101111011001110
1101111011001011
1101111011000101
1101111011000011
1101111011000010
1101111011001100
1101111011000010
1101111011001001
1101111011000011
1101111011001111
1101111011110111
1101111011000111
1101111011001011
1101111011001110
1101111011000111
1101111011000011
1101111011001000
1101111011000101
1101111011001011
1101111011001100
1101111011000100
1101111011001000
1101111011001110
1101111011000110
1101111011000100
1101111011001001
1101111011001011
1101111011001011
1101111011001110
1101111011000011
1101111011001100
1101111011001011
1101111011000010
1101111011001000
1101111011001001
1101111011000010
1101111011001001
1101111011001010
1101111011001101
1101111011000100
1101111011000010
1101111011001100
1101111011001101
1101111011001010
1101111011000100
1101111011000100
1101111011000011
1101111011001101
1101111011000110
1101111011000111
1101111011000101
1101111011000011
1101111011001000
1101111011001011
1101111011110111
1101111011001000
1101111011001101
1101111011001011
1101111011000110
1101111011001101
1101111011001001
1101111011001011
1101111011001101
1101111011000111
1101111011001100
1101111011001111
1101111011000010
1101111011001111
1101111011001001
1101111011110111
1101111011001111
1101111011110111
1101111011001011
1101111011000100
1101111011001111
1101111011000100
1101111011001010
1101111011000101
1101111011000010
1101111011000010
1101111011001110
1101111011001000
1101111011001011
1101111011001001
1101111011110111
1101111011001011
1101111011001001
1101111011000110
1101111011000111
1101111011000100
1101111011001100
1101111011001110
1101111011000100
1101111011001010
1101111011001001
1101111011000110
1101111011000010
1101111011001110
1101111011001001
1101111011000110
1101111011001110
1101111011000101
1101111011000111
1101111011001001
1101111011000101
1101111011000111
1101111011001010
1101111011001010
1101111011000110
1101111011001000
1101111011001111
1101111011000101
1101111011001100
1101111011001001
1101111011001110
1101111011001110
1101111011001011
1101111011000101
1101111011000010
1101111011001001
1101111011000110
1101111011000111
1101111011000010
1101111011000100
1101111011000010
1101111011001100
1101111011000100
1101111011001000
1101111011000100
1101111011000111
1101111011000110
1101111011001110
1101111011001111
1101111011001101
1101111011001111
1101111011001100
1101111011001101
1101111011001001
1101111011001111
1101111011000100
1101111011001101
1101111011000111
1101111011000100
1101111011000101
1101111011001001
1101111011001110
1101111011001110
1101111011000101
1101111011000011
1101111011000010
1101111011001000
1101111011000010
1101111011000100
1101111011000011
1101111011001111
1101111011001011
1101111011000010
1101111011001001
1101111011000100
1101111011001100
1101111011110111
1101111011000111
1101111011001101
1101111011001111
1101111011001000
1101111011001111
1101111011000111
1101111011001110
1101111011001101
1101111011001111
1101111011110111
1101111011001010
1101111011001101
1101111011000101
1101111011001010
1101111011000101
1101111011000011
1101111011110111
1101111011000010
1101111011001010
1101111011000111
1101111011001001
1101111011001101
1101111011001110
1101111011001011
1101111011110111
1101111011000011
1101111011000110
1101111011001111
1101111011001100
1101111011001000
1101111011001011
1101111011000110
1101111011000110
1101111011001011
1101111011001110
1101111011000101
1101111011001111
1101111011001011
1101111011000110
1101111011001010
1101111011000011
1101111011001001
1101111011000101
1101111011000111
1101111011001111
1101111011001010
1101111011001000
1101111011000110
1101111011110111
1101111011000110
1101111011001001
1101111011001100
1101111011001110
1101111011110111
1101111011001001
1101111011000011
1101111011001011
1101111011001110
1101111011000011
1101111011110111
1101111011001100
1101111011001010
1101111011001111
1101111011000101
1101111011001011
1101111011000101
1101111011001100
1101111011000101
1101111011110111
1101111011001010
1101111011000011
1101111011110111
1101111011000010
1101111011001011
1101111011000101
1101111011000011
1101111011001011
1101111011001101
1101111011001011
1101111011001000
1101111011001101
1101111011001001
1101111011110111
1101111011001111
1101111011110111
1101111011001011
1101111011000010
1101111011000101
1101111011000101
1101111011001010
1101111011001000
1101111011001110
1101111011000101
1101111011000011
1101111011001011
1101111011000111
1101111011001101
1101111011001010
1101111011001010
1101111011001011
1101111011000111
1101111011001101
1101111011001010
1101111011001001
1101111011000010
1101111011000010
1101111011000111
1101111011001100
1101111011000010
1101111011000011
1101111011000110
1101111011001101
1101111011110111
1101111011110111
1101111011110111
1101111011001101
1101111011000110
1101111011000010
1101111011000010
1101111011000011
1101111011000101
1101111011001101
1101111011000011
1101111011000111
1101111011001101
1101111011001000
1101111011000011
1101111011001010
1101111011000110
1101111011001110
1101111011000101
1101111011001001
1101111011001000
1101111011001101
1101111011000110
1101111011000010
1101111011110111
1101111011110111
1101111011001011
1101111011001111
1101111011000111
1101111011000101
1101111011001011
1101111011000011
1101111011000110
1101111011001000
1101111011001111
1101111011110111
1101111011000101
1101111011001010
1101111011000100
1101111011001001
1101111011000011
1101111011110111
1101111011000111
1101111011001000
1101111011001101
1101111011001101
1101111011000111
1101111011001111
1101111011001111
1101111011000110
1101111011001001
1101111011001100
1101111011001110
1101111011000101
1101111011001110
1101111011000111
1101111011001001
1101111011001001
1101111011000100
1101111011110111
1101111011001110
1101111011001001
1101111011000100
1101111011001110
1101111011110111
1101111011001100
1101111011001000
1101111011000100
1101111011001111
1101111011110111
1101111011000101
1101111011000111
1101111011110111
1101111011000100
1101111011001100
1101111011001100
1101111011000010
1101111011000100
1101111011110111
1101111011001000
1101111011001110
1101111011000011
1101111011001001
1101111011000010
1101111011001110
1101111011001100
1101111011000111
1101111011001000
1101111011001100
1101111011001000
1101111011000101
1101111011001011
1101111011001100
1101111011001001
1101111011001110
1101111011000100
1101111011000100
1101111011001110
1101111011000111
1101111011110111
1101111011001010
1101111011001010
1101111011001000
1101111011001111
1101111011110111
1101111011001100
1101111011000111
1101111011110111
1101111011000111
1101111011001111
1101111011000100
1101111011001000
1101111011001110
1101111011001111
1101111011000010
1101111011000010
1101111011001100
1101111011000111
1101111011001100
1101111011001010
1101111011000111
1101111011001010
1101111011000011
1101111011001110
1101111011000110
1101111011001001
1101111011000010
1101111011001101
1101111011001100
1101111011000111
1101111011000011
1101111011110111
1101111011000101
1101111011001010
1101111011000011
1101111011001010
1101111011000010
1101111011000111
1101111011001111
1101111011001000
1101111011110111
1101111011001100
1101111011001010
1101111011001111
1101111011001000
1101111011000111
1101111011001110
1101111011000011
1101111011000011
1101111011001100
1101111011001101
1101111011001001
1101111011110111
1101111011001111
1101111011000011
1101111011000111
1101111011001010
1101111011001100
1101111011000011
1101111011000011
1101111011001110
1101111011001111
1101111011000011
1101111011001001
1101111011001100
1101111011000111
1101111011001110
1101111011000101
1101111011001110
1101111011000101
1101111011000100
1101111011000011
1101111011000010
1101111011000010
1101111011001010
1101111011001110
1101111011001100
1101111011000011
1101111011001011
1101111011000010
1101111011001101
1101111011001011
1101111011001010
1101111011000111
1101111011001111
1101111011001010
1101111011000100
1101111011001011
1101111011110111
1101111011000010
1101111011001101
1101111011000111
1101111011000010
1101111011001101
1101111011001000
1101111011000010
1101111011000011
1101111011000010
1101111011001001
1101111011000101
1101111011001100
1101111011001001
1101111011001110
1101111011001101
1101111011000100
1101111011001011
1101111011000011
1101111011001101
1101111011000100
1101111011000010
1101111011000111
1101111011001100
1101111011110111
1101111011110111
1101111011001011
1101111011000101
1101111011000111
1101111011000110
1101111011001111
1101111011000101
1101111011001011
1101111011001000
1101111011000010
1101111011110111
1101111011001011
1101111011000010
1101111011001111
1101111011000011
1101111011001001
1101111011000110
1101111011001101
1101111011000110
1101111011000110
1101111011000111
1101111011001111
1101111011001011
1101111011000101
1101111011001010
1101111011000110
1101111011000110
1101111011000101
1101111011001010
1101111011001110
1101111011001011
1101111011001001
1101111011001111
1101111011001011
1101111011001010
1101111011001111
1101111011001011
1101111011000100
1101111011001010
1101111011110111
1101111011000100
1101111011000101
1101111011000100
1101111011001110
1101111011001001
1101111011001011
1101111011001100
1101111011001010
1101111011001101
1101111011001110
1101111011001100
1101111011000010
1101111011000101
1101111011001001
1101111011001111
1101111011001110
1101111011000111
1101111011000110
1101111011000101
1101111011000111
1101111011000111
1101111011110111
1101111011001010
1101111011001110
1101111011001001
1101111011001110
1101111011001110
1101111011000010
1101111011001010
1101111011000010
1101111011001000
1101111011001101
1101111011001110
1101111011001110
1101111011000111
1101111011001000
1101111011110111
1101111011000100
1101111011001001
1101111011001100
1101111011001010
1101111011000010
1101111011110111
1101111011110111
1101111011001001
1101111011001010
1101111011001001
1101111011000110
1101111011000110
1101111011001000
1101111011000111
1101111011001011
1101111011000110
1101111011000110
1101111011001010
1101111011001110
1101111011000011
1101111011001100
1101111011001111
1101111011000111
1101111011001111
1101111011000010
1101111011001100
1101111011001010
1101111011001110
1101111011001111
1101111011001001
1101111011001100
1101111011001000
1101111011000111
1101111011000010
1101111011001010
1101111011000100
1101111011001001
1101111011000111
1101111011001110
1101111011001100
1101111011000110
1101111011001111
1101111011001010
1101111011000010
1101111011110111
1101111011000101
1101111011001100
1101111011000100
1101111011110111
1101111011000110
1101111011001111
1101111011001010
1101111011001101
1101111011110111
1101111011000111
1101111011001001
1101111011001011
1101111011000101
1101111011001100
1101111011110111
1101111011000100
1101111011000101
1101111011000101
1101111011000010
1101111011001011
1101111011001111
1101111011001000
1101111011001110
1101111011001101
1101111011000111
1101111011000110
1101111011000111
1101111011001000
1101111011000100
1101111011001000
1101111011000010
1101111011110111
1101111011001101
1101111011001011
1101111011000111
1101111011001010
1101111011000110
1101111011000100
1101111011000011
1101111011001111
1101111011001011
1101111011000100
1101111011001101
1101111011001000
1101111011000111
1101111011001000
1101111011001101
1101111011000010
1101111011001101
1101111011110111
1101111011110111
1101111011000111
1101111011000110
1101111011001101
1101111011000010
1101111011000111
1101111011001011
1101111011001010
1101111011001111
1101111011000110
1101111011000110
1101111011001111
1101111011000111
1101111011001001
1101111011001000
1101111011001111
1101111011001100
1101111011000100
1101111011001101
1101111011000111
1101111011001000
1101111011001001
1101111011001101
1101111011000111
1101111011000100
1101111011001010
1101111011001100
1101111011001101
1101111011000101
1101111011001011
1101111011001010
1101111011001100
1101111011001111
1101111011001111
1101111011001101
1101111011000110
1101111011000101
1101111011000111
1101111011001111
1101111011001001
1101111011001011
1101111011001110
1101111011001111
1101111011000011
1101111011001000
1101111011001110
1101111011110111
1101111011001010
1101111011001111
1101111011000111
1101111011000010
1101111011000110
1101111011000101
1101111011001111
1101111011001110
1101111011001011
1101111011001001
1101111011000011
1101111011000011
1101111011001111
1101111011001110
1101111011001001
1101111011001001
1101111011000011
1101111011001011
1101111011001000
1101111011001010
1101111011001110
1101111011001000
1101111011110111
1101111011000011
1101111011001001
1101111011001110
1101111011001101
1101111011000100
1101111011000010
1101111011110111
1101111011000110
1101111011001011
1101111011000111
1101111011001110
1101111011000110
1101111011000010
1101111011001011
1101111011110111
1101111011001111
1101111011001001
1101111011001111
1101111011000110
1101111011001110
1101111011001111
1101111011001101
1101111011000101
1101111011001100
1101111011000110
1101111011000101
1101111011001001
1101111011000010
1101111011000100
1101111011001101
1101111011001010
1101111011001100
1101111011000011
1101111011001110
1101111011110111
1101111011001000
1101111011000010
1101111011110111
1101111011000111
1101111011001000
1101111011000111
1101111011001011
1101111011000101
1101111011000010
1101111011001100
1101111011001110
1101111011000111
1101111011001101
1101111011001101
1101111011000101
1101111011000111
1101111011001111
1101111011001101
1101111011000100
1101111011001110
1101111011001010
1101111011001011
1101111011001101
1101111011001101
1101111011000110
1101111011001000
1101111011000010
1101111011000011
1101111011000010
1101111011000101
1101111011000110
1101111011001101
1101111011001001
1101111011001000
1101111011001001
1101111011110111
1101111011000100
1101111011000111
1101111011000101
1101111011000011
1101111011001001
1101111011000100
1101111011001101
1101111011000101
1101111011001000
1101111011000101
1101111011000110
1101111011001110
1101111011000010
1101111011001101
1101111011001011
1101111011001111
1101111011110111
1101111011000110
1101111011001101
1101111011001101
1101111011001101
1101111011001100
1101111011000111
1101111011001000
1101111011000110
1101111011001010
1101111011001100
1101111011001000
1101111011001111
1101111011001011
1101111011000010
1101111011001001
1101111011110111
1101111011000100
1101111011001110
1101111011001010
1101111011001111
1101111011001001
1101111011001101
1101111011001011
1101111011001011
1101111011001001
1101111011000111
1101111011001000
1101111011000111
1101111011001111
1101111011001001
1101111011000011
1101111011001011
1101111011001110
1101111011000110
1101111011110111
1101111011001100
1101111011001001
1101111011001110
1101111011001001
1101111011001100
1101111011001001
1101111011001011
1101111011001110
1101111011000010
1101111011000110
1101111011000101
1101111011001111
1101111011001010
1101111011110111
1101111011000111
1101111011001110
1101111011000111
1101111011001101
1101111011001111
1101111011000010
1101111011001101
1101111011110111
1101111011000010
1101111011000011
1101111011001100
1101111011000010
1101111011000010
1101111011001011
1101111011000011
1101111011000111
1101111011000101
1101111011000010
1101111011000101
1101111011000011
1101111011000101
1101111011001011
1101111011001110
1101111011000110
1101111011000110
1101111011001110
1101111011000010
1101111011000110
1101111011001100
1101111011000010
1101111011000100
1101111011000111
1101111011001000
1101111011001111
1101111011000011
1101111011001101
1101111011110111
1101111011001110
1101111011001100
1101111011001101
1101111011000011
1101111011000101
1101111011000110
1101111011001001
1101111011000100
1101111011001011
1101111011001001
1101111011000110
1101111011001000
1101111011001100
1101111011001100
1101111011001101
1101111011001000
1101111011000010
1101111011001001
1101111011000101
1101111011001000
1101111011001110
1101111011110111
1101111011001011
1101111011000100
1101111011001010
1101111011001011
1101111011110111
1101111011000101
1101111011001110
1101111011001011
1101111011001000
1101111011001010
1101111011110111
1101111011001001
1101111011000111
1101111011000111
1101111011001011
1101111011000010
1101111011001000
1101111011110111
1101111011001001
1101111011001011
1101111011000110
1101111011001111
1101111011001010
1101111011000100
1101111011000111
1101111011001110
1101111011001101
1101111011001011
1101111011001111
1101111011000101
1101111011001001
1101111011000011
1101111011000010
1101111011000100
1101111011001110
1101111011001101
1101111011110111
1101111011001110
1101111011000010
1101111011001010
1101111011000100
1101111011000011
1101111011001000
1101111011001000
1101111011001101
1101111011001111
1101111011000011
1101111011001000
1101111011001011
1101111011000100
1101111011000110
1101111011000011
1101111011001010
1101111011000100
1101111011001000
1101111011001001
1101111011000110
1101111011000011
1101111011000010
1101111011000101
1101111011000101
1101111011001110
1101111011000100
1101111011001110
1101111011110111
1101111011000011
1101111011000100
1101111011000111
1101111011000010
1101111011000100
1101111011000010
1101111011000011
1101111011001010
1101111011001110
1101111011000011
1101111011001100
1101111011000100
1101111011000110
1101111011001011
1101111011001100
1101111011001111
1101111011000101
1101111011001101
1101111011001101
1101111011001011
1101111011000101
1101111011001000
1101111011001011
1101111011000010
1101111011000011
1101111011000010
1101111011000101
1101111011000101
1101111011001011
1101111011000011
1101111011000011
1101111011000010
1101111011110111
1101111011001001
1101111011000010
1101111011001111
1101111011001110
1101111011000101
1101111011000011
1101111011000100
1101111011000101
1101111011001100
1101111011000101
1101111011001111
1101111011001000
1101111011000111
1101111011001110
1101111011001011
1101111011000100
1101111011000100
1101111011001001
1101111011000110
1101111011001010
1101111011001001
1101111011001101
1101111011110111
1101111011001100
1101111011001011
1101111011000100
1101111011000011
1101111011110111
1101111011000111
1101111011000011
1101111011001000
1101111011001010
1101111011000111
1101111011000110
1101111011000011
1101111011000100
1101111011001001
1101111011001101
1101111011110111
1101111011001000
1101111011001011
1101111011001010
1101111011001100
1101111011000101
1101111011110111
1101111011001000
1101111011001111
1101111011000100
1101111011001111
1101111011001010
1101111011001110
1101111011001100
1101111011000011
1101111011000110
1101111011001001
1101111011000110
1101111011001000
1101111011000100
1101111011000101
1101111011000011
1101111011000111
1101111011001000
1101111011001001
1101111011001101
1101111011001111
1101111011110111
1101111011000100
1101111011001100
1101111011001101
1101111011001011
1101111011000110
1101111011000011
1101111011001101
1101111011000111
1101111011000111
1101111011001101
1101111011000011
1101111011000011
1101111011000010
1101111011000010
1101111011001111
1101111011001011
1101111011110111
1101111011000010
1101111011000101
1101111011001001
1101111011000110
1101111011001011
1101111011001111
1101111011000010
1101111011001001
1101111011001000
1101111011000100
1101111011001000
1101111011001110
1101111011001001
1101111011001001
1101111011001101
1101111011001101
1101111011000111
1101111011001011
1101111011001110
1101111011001001
1101111011000111
1101111011000110
1101111011001100
1101111011001110
1101111011001011
1101111011000101
1101111011001010
1101111011001101
1101111011000101
1101111011001010
1101111011001001
1101111011000111
1101111011000010
1101111011001111
1101111011000111
1101111011001011
1101111011000010
1101111011000011
1101111011001010
1101111011110111
1101111011001011
1101111011001111
1101111011001011
1101111011001011
1101111011000111
1101111011001011
1101111011001001
1101111011001011
1101111011000010
1101111011001010
1101111011001001
1101111011001000
1101111011000101
1101111011000010
1101111011001101
1101111011001001
1101111011001111
1101111011110111
1101111011001101
1101111011110111
1101111011001110
1101111011000010
1101111011001110
1101111011000111
1101111011001101
1101111011000101
1101111011000011
1101111011001100
1101111011000010
1101111011000111
1101111011110111
1101111011001000
1101111011001010
1101111011001101
1101111011001011
1101111011000101
1101111011000011
1101111011000100
1101111011000011
1101111011001110
1101111011001011
1101111011001010
1101111011001101
1101111011001111
1101111011001110
1101111011000101
1101111011000110
1101111011001111
1101111011001000
1101111011001001
1101111011000010
1101111011000110
1101111011001110
1101111011000101
1101111011001111
1101111011000010
1101111011001011
1101111011110111
1101111011000111
1101111011001011
1101111011001010
1101111011001111
1101111011110111
1101111011000101
1101111011000111
1101111011110111
1101111011001110
1101111011001111
1101111011000111
1101111011000011
1101111011000100
1101111011000011
1101111011001010
1101111011001011
1101111011000111
1101111011001110
1101111011110111
1101111011001111
1101111011000100
1101111011001011
1101111011001100
1101111011000010
1101111011110111
1101111011001000
1101111011000110
1101111011001101
1101111011001110
1101111011001101
1101111011001001
1101111011001111
1101111011001000
1101111011000110
1101111011001101
1101111011000010
1101111011000100
1101111011001001
1101111011001110
1101111011000100
1101111011000110
1101111011001111
1101111011001011
1101111011000110
1101111011000101
1101111011000110
1101111011110111
1101111011001011
1101111011001010
1101111011001010
1101111011001011
1101111011001101
1101111011000110
1101111011001100
1101111011001100
1101111011000111
1101111011110111
1101111011001101
1101111011000110
1101111011001100
1101111011000101
1101111011001111
1101111011000110
1101111011000110
1101111011000011
1101111011001001
1101111011001100
1101111011000011
1101111011000010
1101111011000100
1101111011001001
1101111011000011
1101111011000100
1101111011000111
1101111011000100
1101111011000101
1101111011000010
1101111011001000
1101111011110111
1101111011000011
1101111011001011
1101111011000111
1101111011000111
1101111011000100
1101111011000101
1101111011001101
1101111011000011
1101111011001001
1101111011001011
1101111011001110
1101111011001011
1101111011001000
1101111011001111
1101111011001100
1101111011001010
1101111011001000
1101111011001000
1101111011000101
1101111011001110
1101111011001110
1101111011001111
1101111011001100
1101111011001001
1101111011000101
1101111011001011
1101111011001101
1101111011001101
1101111011000011
1101111011001011
1101111011001101
1101111011000011
1101111011000010
1101111011001000
1101111011000100
1101111011001100
1101111011001111
1101111011001100
1101111011001001
1101111011000011
1101111011001110
1101111011001011
1101111011001110
1101111011001101
1101111011000010
1101111011000110
1101111011000011
1101111011001001
1101111011001101
1101111011001010
1101111011000100
1101111011001110
1101111011000100
1101111011001001
1101111011001011
1101111011001001
1101111011001111
1101111011000101
1101111011110111
1101111011001000
1101111011000110
1101111011000100
1101111011000110
1101111011001110
1101111011000110
1101111011001100
1101111011000100
1101111011001101
1101111011000010
1101111011000011
1101111011001111
1101111011001111
1101111011001000
1101111011001111
1101111011001000
1101111011000110
1101111011000111
1101111011000111
1101111011001100
1101111011110111
1101111011001111
1101111011001101
1101111011001011
1101111011001010
1101111011000111
1101111011001011
1101111011001101
1101111011000100
1101111011000100
1101111011001001
1101111011001111
1101111011001101
1101111011001101
1101111011001011
1101111011001110
1101111011001101
1101111011000010
1101111011001011
1101111011001000
1101111011001011
1101111011110111
1101111011000111
1101111011000111
1101111011001100
1101111011000111
1101111011001011
1101111011000010
1101111011001010
1101111011001010
1101111011001001
1101111011110111
1101111011000100
1101111011001100
1101111011001100
1101111011001101
1101111011001101
1101111011001110
1101111011110111
1101111011000010
1101111011001111
1101111011000111
1101111011000100
1101111011000110
1101111011001010
1101111011001001
1101111011000111
1101111011001011
1101111011110111
1101111011000101
1101111011000010
1101111011000111
1101111011001011
1101111011000111
1101111011001101
1101111011110111
1101111011000010
1101111011001111
1101111011000011
1101111011001110
1101111011000101
1101111011001100
1101111011001110
1101111011001110
1101111011001110
1101111011001000
1101111011001010
1101111011000010
1101111011001110
1101111011001010
1101111011000011
1101111011000100
1101111011000100
1101111011001110
1101111011000011
1101111011001010
1101111011001001
1101111011001110
1101111011001111
1101111011001110
1101111011001011
1101111011001001
1101111011000101
1101111011001110
1101111011000100
1101111011001111
1101111011001001
1101111011001011
1101111011001100
1101111011001100
1101111011001111
1101111011001110
1101111011110111
1101111011000101
1101111011001010
1101111011110111
1101111011001100
1101111011000011
1101111011001000
1101111011001000
1101111011001100
1101111011001000
1101111011110111
1101111011000101
1101111011001110
1101111011001011
1101111011001101
1101111011000110
1101111011000110
1101111011110111
1101111011000111
1101111011001010
1101111011001001
1101111011000101
1101111011001101
1101111011001010
1101111011001011
1101111011000010
1101111011001001
1101111011000110
1101111011001101
1101111011001110
1101111011110111
1101111011000101
1101111011001101
1101111011000101
1101111011001111
1101111011000100
1101111011001101
1101111011000110
1101111011001000
1101111011001110
1101111011001010
1101111011001000
1101111011000101
1101111011000010
1101111011000101
1101111011001110
1101111011001010
1101111011000110
1101111011000110
1101111011000101
1101111011001110
1101111011000110
1101111011000111
1101111011001001
1101111011001101
1101111011001110
1101111011000010
1101111011000100
1101111011000011
1101111011000011
1101111011001111
1101111011000011
1101111011000101
1101111011000011
1101111011001110
1101111011000111
1101111011000111
1101111011001100
1101111011001010
1101111011001000
1101111011000011
1101111011000111
1101111011001111
1101111011110111
1101111011001100
1101111011000011
1101111011001110
1101111011000111
1101111011000010
1101111011000010
1101111011000101
1101111011001100
1101111011001110
1101111011001110
1101111011001100
1101111011001111
1101111011001101
1101111011001111
1101111011110111
1101111011000111
1101111011001100
1101111011001100
1101111011000110
1101111011001010
1101111011000011
1101111011001001
1101111011001100
1101111011000100
1101111011001100
1101111011001100
1101111011001110
1101111011000111
1101111011001011
1101111011001000
1101111011001001
1101111011000011
1101111011000010
1101111011001010
1101111011000100
1101111011001111
1101111011001110
1101111011001001
1101111011001101
1101111011001001
1101111011001110
1101111011000100
1101111011001011
1101111011000110
1101111011000010
1101111011001111
1101111011110111
1101111011000111
1101111011001110
1101111011001110
1101111011001000
1101111011000101
1101111011001000
1101111011000110
1101111011000110
1101111011001000
1101111011000010
1101111011001101
1101111011000111
1101111011000100
1101111011001111
1101111011001100
1101111011001100
1101111011001101
1101111011000010
1101111011000110
1101111011001101
1101111011001100
1101111011001111
1101111011001011
1101111011110111
1101111011001001
1101111011001010
1101111011000011
1101111011001000
1101111011001111
1101111011001000
1101111011001101
1101111011001000
1101111011001110
1101111011001001
1101111011110111
1101111011001111
1101111011000111
1101111011000100
1101111011001101
1101111011001110
1101111011001111
1101111011001011
1101111011001001
1101111011001100
1101111011000110
1101111011001001
1101111011001100
1101111011001011
1101111011001011
1101111011001111
1101111011000100
1101111011000101
1101111011001011
1101111011000111
1101111011001000
1101111011000100
1101111011001001
1101111011000101
1101111011000111
1101111011001000
1101111011001011
1101111011000100
1101111011000101
1101111011110111
1101111011001100
1101111011001001
1101111011001011
1101111011001100
1101111011000101
1101111011000101
1101111011000010
1101111011000011
1101111011001111
1101111011000010
1101111011000110
1101111011001110
1101111011000011
1101111011000100
1101111011000011
1101111011000010
1101111011001010
1101111011001011
1101111011000010
1101111011001011
1101111011000011
1101111011000100
1101111011000010
1101111011001000
1101111011001110
1101111011001010
1101111011001011
1101111011001110
1101111011000111
1101111011001010
