1111111111001000
1111111111001001
1111111111001101
1111111111000011
1111111111111111
1111111111000111
1111111111001110
1111111111000110
1111111111001001
1111111111000111
1111111111000011
1111111111001011
1111111111000101
1111111111000110
1111111111000101
1111111111000010
1111111111001110
1111111111000101
1111111111001011
1111111111001111
1111111111000011
1111111111001111
1111111111000010
1111111111000101
1111111111000110
1111111111111111
1111111111001001
1111111111000010
1111111111001111
1111111111001111
1111111111001011
1111111111111111
1111111111001000
1111111111000100
1111111111001100
1111111111001111
1111111111000010
1111111111000101
1111111111000101
1111111111001001
1111111111001111
1111111111000101
1111111111001011
1111111111001101
1111111111111111
1111111111001000
1111111111001001
1111111111001010
1111111111000010
1111111111001001
1111111111001101
1111111111001100
1111111111001010
1111111111001101
1111111111001001
1111111111001111
1111111111111111
1111111111001010
1111111111000010
1111111111000010
1111111111001101
1111111111000110
1111111111111111
1111111111000011
1111111111000111
1111111111000101
1111111111000011
1111111111000110
1111111111001000
1111111111000110
1111111111001101
1111111111001101
1111111111000111
1111111111000101
1111111111001100
1111111111111111
1111111111001101
1111111111001100
1111111111111111
1111111111000100
1111111111001111
1111111111111111
1111111111001101
1111111111001000
1111111111001011
1111111111000011
1111111111001101
1111111111000010
1111111111000101
1111111111000101
1111111111000011
1111111111000011
1111111111000100
1111111111001001
1111111111000011
1111111111001001
1111111111000101
1111111111001010
1111111111000111
1111111111001010
1111111111001010
1111111111001010
1111111111001001
1111111111000010
1111111111000101
1111111111001101
1111111111001100
1111111111001111
1111111111001100
1111111111000100
1111111111000011
1111111111000100
1111111111001011
1111111111001111
1111111111001111
1111111111001000
1111111111001110
1111111111001111
1111111111001010
1111111111001110
1111111111000101
1111111111001010
1111111111001010
1111111111001010
1111111111001110
1111111111000100
1111111111000110
1111111111000101
1111111111000101
1111111111000101
1111111111001101
1111111111000110
1111111111000110
1111111111000011
1111111111001010
1111111111000010
1111111111001000
1111111111111111
1111111111000011
1111111111001101
1111111111111111
1111111111000100
1111111111001101
1111111111000111
1111111111001101
1111111111001101
1111111111111111
1111111111001111
1111111111001101
1111111111001101
1111111111000100
1111111111001010
1111111111000101
1111111111001000
1111111111001011
1111111111000110
1111111111001111
1111111111001111
1111111111001000
1111111111001100
1111111111001110
1111111111001101
1111111111111111
1111111111001101
1111111111001011
1111111111001001
1111111111001101
1111111111000110
1111111111000110
1111111111000111
1111111111001011
1111111111000100
1111111111001111
1111111111001100
1111111111001011
1111111111000100
1111111111001100
1111111111001101
1111111111000100
1111111111000011
1111111111001001
1111111111111111
1111111111001011
1111111111001000
1111111111111111
1111111111000110
1111111111001100
1111111111001101
1111111111001101
1111111111001011
1111111111001101
1111111111001001
1111111111111111
1111111111000110
1111111111001011
1111111111001110
1111111111001001
1111111111000010
1111111111001111
1111111111001100
1111111111000100
1111111111000100
1111111111000010
1111111111001100
1111111111001101
1111111111001101
1111111111001011
1111111111000111
1111111111000110
1111111111000101
1111111111001011
1111111111001110
1111111111111111
1111111111001101
1111111111000101
1111111111001001
1111111111001110
1111111111000010
1111111111000111
1111111111001110
1111111111000100
1111111111000101
1111111111000011
1111111111001000
1111111111001101
1111111111000010
1111111111001111
1111111111001010
1111111111000101
1111111111001110
1111111111001101
1111111111001111
1111111111000110
1111111111001011
1111111111001110
1111111111001001
1111111111001000
1111111111001001
1111111111000110
1111111111001100
1111111111001001
1111111111111111
1111111111000010
1111111111111111
1111111111001100
1111111111000101
1111111111001111
1111111111001001
1111111111001110
1111111111000101
1111111111001111
1111111111000111
1111111111000111
1111111111001001
1111111111001110
1111111111001001
1111111111000010
1111111111000110
1111111111000100
1111111111001000
1111111111000011
1111111111001001
1111111111001010
1111111111000100
1111111111111111
1111111111001000
1111111111000011
1111111111001111
1111111111000101
1111111111000111
1111111111001111
1111111111001011
1111111111001101
1111111111001110
1111111111001110
1111111111000110
1111111111001110
1111111111001010
1111111111001100
1111111111000100
1111111111001101
1111111111001111
1111111111000100
1111111111001011
1111111111001101
1111111111001011
1111111111001100
1111111111000010
1111111111000101
1111111111000101
1111111111001110
1111111111000011
1111111111001011
1111111111000111
1111111111000010
1111111111001111
1111111111111111
1111111111000010
1111111111000011
1111111111001000
1111111111001100
1111111111111111
1111111111001101
1111111111001011
1111111111111111
1111111111000101
1111111111000011
1111111111111111
1111111111000101
1111111111001111
1111111111000100
1111111111000101
1111111111000010
1111111111001010
1111111111000110
1111111111001101
1111111111001000
1111111111001100
1111111111001100
1111111111001101
1111111111001001
1111111111001101
1111111111000011
1111111111001000
1111111111000111
1111111111000010
1111111111001110
1111111111001110
1111111111001000
1111111111000011
1111111111000010
1111111111000100
1111111111000011
1111111111111111
1111111111001000
1111111111001101
1111111111000011
1111111111001100
1111111111001011
1111111111001101
1111111111001001
1111111111001110
1111111111001011
1111111111001111
1111111111001110
1111111111000100
1111111111001001
1111111111001101
1111111111001000
1111111111000101
1111111111111111
1111111111000101
1111111111000101
1111111111000110
1111111111001010
1111111111000010
1111111111001111
1111111111001010
1111111111001101
1111111111001111
1111111111001101
1111111111111111
1111111111000100
1111111111001110
1111111111001111
1111111111001101
1111111111000110
1111111111000111
1111111111001010
1111111111000100
1111111111001010
1111111111001110
1111111111001000
1111111111001111
1111111111000011
1111111111000111
1111111111001101
1111111111001011
1111111111000110
1111111111000011
1111111111000110
1111111111000111
1111111111001100
1111111111000110
1111111111001110
1111111111001000
1111111111001011
1111111111000011
1111111111000110
1111111111001010
1111111111001011
1111111111001100
1111111111000100
1111111111001000
1111111111111111
1111111111111111
1111111111000110
1111111111001010
1111111111000111
1111111111001001
1111111111001000
1111111111001000
1111111111000011
1111111111001101
1111111111000110
1111111111001101
1111111111000111
1111111111001100
1111111111000111
1111111111000100
1111111111000111
1111111111001110
1111111111001010
1111111111000101
1111111111000111
1111111111001010
1111111111001011
1111111111000100
1111111111001100
1111111111000111
1111111111000101
1111111111111111
1111111111001101
1111111111001110
1111111111001000
1111111111001100
1111111111001011
1111111111000011
1111111111000101
1111111111001111
1111111111111111
1111111111000110
1111111111000110
1111111111000010
1111111111001001
1111111111000010
1111111111001000
1111111111001011
1111111111000111
1111111111000101
1111111111000101
1111111111111111
1111111111000011
1111111111000010
1111111111001100
1111111111000111
1111111111001111
1111111111000101
1111111111001000
1111111111001111
1111111111000010
1111111111000110
1111111111000010
1111111111001100
1111111111001110
1111111111000010
1111111111001111
1111111111000101
1111111111000011
1111111111000100
1111111111001010
1111111111000010
1111111111000011
1111111111001011
1111111111001011
1111111111000111
1111111111000101
1111111111000100
1111111111000100
1111111111000111
1111111111001011
1111111111001001
1111111111111111
1111111111000110
1111111111001100
1111111111000111
1111111111001010
1111111111111111
1111111111000111
1111111111001000
1111111111001010
1111111111000100
1111111111001101
1111111111001010
1111111111000111
1111111111001000
1111111111001100
1111111111001100
1111111111000101
1111111111001110
1111111111000101
1111111111000010
1111111111000100
1111111111001000
1111111111000101
1111111111001110
1111111111000100
1111111111000101
1111111111001110
1111111111001101
1111111111001101
1111111111111111
1111111111000100
1111111111000010
1111111111001010
1111111111001000
1111111111000101
1111111111000111
1111111111000110
1111111111001011
1111111111000011
1111111111001000
1111111111001101
1111111111001000
1111111111111111
1111111111001010
1111111111111111
1111111111000111
1111111111001111
1111111111001111
1111111111001101
1111111111000101
1111111111001000
1111111111000100
1111111111000101
1111111111000111
1111111111001011
1111111111000110
1111111111001111
1111111111001111
1111111111000010
1111111111000100
1111111111000011
1111111111000100
1111111111000100
1111111111000011
1111111111001011
1111111111001110
1111111111000010
1111111111001100
1111111111001111
1111111111000100
1111111111000100
1111111111000011
1111111111000011
1111111111001110
1111111111001110
1111111111000010
1111111111001100
1111111111001000
1111111111000101
1111111111000110
1111111111000010
1111111111001100
1111111111111111
1111111111000011
1111111111001000
1111111111000101
1111111111001010
1111111111000101
1111111111000110
1111111111000101
1111111111111111
1111111111001110
1111111111000010
1111111111000101
1111111111000111
1111111111000101
1111111111111111
1111111111001101
1111111111001001
1111111111001001
1111111111111111
1111111111000101
1111111111001010
1111111111001000
1111111111000101
1111111111001001
1111111111000101
1111111111001001
1111111111001001
1111111111000010
1111111111000110
1111111111001101
1111111111001010
1111111111001101
1111111111001111
1111111111000101
1111111111000100
1111111111001110
1111111111000010
1111111111001110
1111111111000011
1111111111000011
1111111111001010
1111111111000011
1111111111000110
1111111111000101
1111111111000100
1111111111111111
1111111111001000
1111111111000011
1111111111001000
1111111111000111
1111111111000010
1111111111001111
1111111111000011
1111111111000111
1111111111001111
1111111111000100
1111111111000010
1111111111000011
1111111111001101
1111111111001111
1111111111000010
1111111111001111
1111111111000010
1111111111000011
1111111111001011
1111111111001110
1111111111000101
1111111111001111
1111111111111111
1111111111111111
1111111111111111
1111111111001001
1111111111001011
1111111111001100
1111111111001011
1111111111001110
1111111111001100
1111111111001101
1111111111001001
1111111111000110
1111111111001011
1111111111001101
1111111111001111
1111111111001011
1111111111000101
1111111111001010
1111111111111111
1111111111000101
1111111111000111
1111111111000101
1111111111000111
1111111111111111
1111111111001001
1111111111000011
1111111111000011
1111111111000010
1111111111001111
1111111111001100
1111111111000111
1111111111000111
1111111111001010
1111111111000011
1111111111001110
1111111111001111
1111111111000110
1111111111000110
1111111111001000
1111111111111111
1111111111000011
1111111111001100
1111111111001011
1111111111111111
1111111111001010
1111111111001001
1111111111000110
1111111111001000
1111111111001110
1111111111001011
1111111111000100
1111111111001110
1111111111000011
1111111111000111
1111111111001110
1111111111000100
1111111111001010
1111111111000111
1111111111111111
1111111111000011
1111111111001000
1111111111000111
1111111111000111
1111111111001100
1111111111001000
1111111111000111
1111111111001011
1111111111001000
1111111111000101
1111111111000010
1111111111001100
1111111111001001
1111111111001101
1111111111001101
1111111111000110
1111111111000111
1111111111001001
1111111111001101
1111111111000110
1111111111001101
1111111111001100
1111111111000111
1111111111000010
1111111111001001
1111111111000011
1111111111001010
1111111111001100
1111111111001001
1111111111000101
1111111111001000
1111111111001100
1111111111000111
1111111111001110
1111111111001001
1111111111000110
1111111111001110
1111111111001111
1111111111001000
1111111111001110
1111111111000011
1111111111001010
1111111111000100
1111111111000101
1111111111000010
1111111111001001
1111111111001110
1111111111001100
1111111111001011
1111111111001001
1111111111001001
1111111111001110
1111111111001100
1111111111000101
1111111111000110
1111111111001111
1111111111001011
1111111111001010
1111111111111111
1111111111111111
1111111111001011
1111111111000111
1111111111000011
1111111111001010
1111111111000100
1111111111001001
1111111111000011
1111111111001010
1111111111000011
1111111111000011
1111111111001010
1111111111000010
1111111111001010
1111111111000111
1111111111000011
1111111111001011
1111111111000011
1111111111000010
1111111111000101
1111111111111111
1111111111000101
1111111111001010
1111111111001100
1111111111000110
1111111111001010
1111111111000100
1111111111000011
1111111111001011
1111111111001100
1111111111000100
1111111111001000
1111111111001011
1111111111001100
1111111111000111
1111111111000111
1111111111111111
1111111111001110
1111111111001111
1111111111001000
1111111111000010
1111111111001100
1111111111000100
1111111111001100
1111111111001011
1111111111000111
1111111111000111
1111111111001101
1111111111001110
1111111111000010
1111111111001001
1111111111001000
1111111111001000
1111111111000010
1111111111001100
1111111111001101
1111111111001100
1111111111000110
1111111111001011
1111111111001111
1111111111001001
1111111111001100
1111111111001001
1111111111001011
1111111111001101
1111111111001110
1111111111001100
1111111111000011
1111111111000111
1111111111001000
1111111111001110
1111111111001110
1111111111001101
1111111111000010
1111111111001110
1111111111000100
1111111111001011
1111111111000110
1111111111000101
1111111111001100
1111111111001100
1111111111000111
1111111111001000
1111111111001100
1111111111000010
1111111111001100
1111111111000101
1111111111000101
1111111111001100
1111111111000010
1111111111001000
1111111111000101
1111111111000100
1111111111001011
1111111111000010
1111111111000110
1111111111000011
1111111111001111
1111111111001111
1111111111111111
1111111111001010
1111111111000010
1111111111001001
1111111111001011
1111111111000110
1111111111000110
1111111111000101
1111111111000100
1111111111001100
1111111111001101
1111111111001000
1111111111000101
1111111111001100
1111111111001011
1111111111001111
1111111111000110
1111111111001000
1111111111000101
1111111111000111
1111111111000100
1111111111000010
1111111111000111
1111111111001000
1111111111001111
1111111111001100
1111111111000110
1111111111111111
1111111111000111
1111111111001111
1111111111001110
1111111111000110
1111111111000110
1111111111000011
1111111111001110
1111111111001010
1111111111000010
1111111111000111
1111111111000110
1111111111000010
1111111111001010
1111111111001010
1111111111000101
1111111111001011
1111111111000101
1111111111001110
1111111111001110
1111111111000110
1111111111001001
1111111111000111
1111111111001110
1111111111000111
1111111111000011
1111111111001011
1111111111000011
1111111111001111
1111111111001000
1111111111001000
1111111111000101
1111111111001011
1111111111001101
1111111111001111
1111111111000100
1111111111000100
1111111111001010
1111111111000010
1111111111001011
1111111111001011
1111111111001111
1111111111000101
1111111111001111
1111111111000111
1111111111001010
1111111111111111
1111111111000110
1111111111001110
1111111111111111
1111111111000011
1111111111001111
1111111111000101
1111111111000010
1111111111001101
1111111111001111
1111111111000011
1111111111001110
1111111111000010
1111111111001001
1111111111001000
1111111111000100
1111111111000101
1111111111001000
1111111111111111
1111111111001100
1111111111001110
1111111111001111
1111111111111111
1111111111000101
1111111111001110
1111111111001110
1111111111000011
1111111111001010
1111111111000100
1111111111001100
1111111111000111
1111111111001001
1111111111000010
1111111111001111
1111111111001001
1111111111000010
1111111111000011
1111111111001011
1111111111001001
1111111111001000
1111111111001100
1111111111000010
1111111111000010
1111111111000100
1111111111001011
1111111111001011
1111111111001110
1111111111000111
1111111111001100
1111111111001111
1111111111001100
1111111111001001
1111111111001000
1111111111001010
1111111111001011
1111111111111111
1111111111001010
1111111111001101
1111111111001010
1111111111000101
1111111111000010
1111111111001000
1111111111001011
1111111111111111
1111111111001001
1111111111001111
1111111111001111
1111111111001010
1111111111001111
1111111111001011
1111111111001010
1111111111001011
1111111111000010
1111111111001100
1111111111000011
1111111111001000
1111111111111111
1111111111001101
1111111111000101
1111111111001000
1111111111111111
1111111111001101
1111111111001000
1111111111001110
1111111111000111
1111111111000100
1111111111000010
1111111111000011
1111111111000010
1111111111001000
1111111111000101
1111111111000010
1111111111001111
1111111111001110
1111111111000100
1111111111000100
1111111111000011
1111111111001010
1111111111000010
1111111111001000
1111111111000110
1111111111001010
1111111111001111
1111111111000101
1111111111000110
1111111111001011
1111111111000010
1111111111000010
1111111111001110
1111111111000111
1111111111001110
1111111111000110
1111111111000111
1111111111000110
1111111111001100
1111111111001000
1111111111001110
1111111111000100
1111111111000111
1111111111000110
1111111111001111
1111111111000101
1111111111000110
1111111111000100
1111111111001111
1111111111111111
1111111111000101
1111111111000111
1111111111000100
1111111111001001
1111111111001111
1111111111001110
1111111111000010
1111111111000110
1111111111000011
1111111111001110
1111111111000010
1111111111000010
1111111111001110
1111111111000011
1111111111000100
1111111111000110
1111111111001110
1111111111000010
1111111111111111
1111111111001111
1111111111001001
1111111111001000
1111111111001010
1111111111001100
1111111111001101
1111111111111111
1111111111000100
1111111111000110
1111111111001010
1111111111000100
1111111111001000
1111111111000010
1111111111001100
1111111111111111
1111111111000010
1111111111001111
1111111111001001
1111111111001010
1111111111001111
1111111111001111
1111111111001100
1111111111000101
1111111111001101
1111111111001110
1111111111001110
1111111111000010
1111111111000100
1111111111001101
1111111111000010
1111111111001111
1111111111001000
1111111111001010
1111111111000010
1111111111001000
1111111111001110
1111111111001000
1111111111001001
1111111111000110
1111111111000110
1111111111000101
1111111111000111
1111111111000010
1111111111001010
1111111111000100
1111111111111111
1111111111001110
1111111111001110
1111111111001001
1111111111111111
1111111111001110
1111111111111111
1111111111001010
1111111111001001
1111111111001000
1111111111000101
1111111111001101
1111111111001000
1111111111001110
1111111111000110
1111111111000101
1111111111000110
1111111111001100
1111111111001110
1111111111001000
1111111111001011
1111111111001101
1111111111000100
1111111111000101
1111111111000111
1111111111001111
1111111111111111
1111111111001111
1111111111001001
1111111111000010
1111111111000101
1111111111000010
1111111111001000
1111111111000111
1111111111001010
1111111111001110
1111111111000101
1111111111001011
1111111111001101
1111111111001111
1111111111000011
1111111111001001
1111111111000111
1111111111000111
1111111111001101
1111111111001001
1111111111001111
1111111111000010
1111111111000011
1111111111001110
1111111111111111
1111111111111111
1111111111000010
1111111111001111
1111111111000010
1111111111001011
1111111111000110
1111111111001001
1111111111000100
1111111111001010
1111111111001111
1111111111001010
1111111111000111
1111111111000110
1111111111000011
1111111111001010
1111111111001101
1111111111111111
1111111111001111
1111111111000111
1111111111000010
1111111111001110
1111111111000010
1111111111001000
1111111111001100
1111111111000111
1111111111001111
1111111111001010
1111111111001100
1111111111111111
1111111111001010
1111111111000101
1111111111001011
1111111111000010
1111111111111111
1111111111001001
1111111111001110
1111111111001001
1111111111000011
1111111111001011
1111111111001011
1111111111001110
1111111111001000
1111111111001000
1111111111000010
1111111111000110
1111111111000110
1111111111111111
1111111111001110
1111111111001001
1111111111001110
1111111111001101
1111111111000100
1111111111001110
1111111111001010
1111111111001001
1111111111000010
1111111111001100
1111111111001100
1111111111000111
1111111111001110
1111111111001111
1111111111000100
1111111111001000
1111111111000110
1111111111001101
1111111111000100
1111111111001010
1111111111001000
1111111111111111
1111111111000101
1111111111000110
1111111111001011
1111111111001101
1111111111001011
1111111111001001
1111111111000110
1111111111111111
1111111111001000
1111111111001011
1111111111001001
1111111111001110
1111111111000010
1111111111000010
1111111111000101
1111111111000110
1111111111001010
1111111111000100
1111111111000011
1111111111001101
1111111111000110
1111111111000010
1111111111000011
1111111111001010
1111111111001100
1111111111001011
1111111111001010
1111111111000100
1111111111001011
1111111111000101
1111111111001000
1111111111001001
1111111111000101
1111111111111111
1111111111000110
1111111111000111
1111111111000010
1111111111001111
1111111111001000
1111111111000101
1111111111001001
1111111111000010
1111111111000100
1111111111001000
1111111111001010
1111111111000101
1111111111001001
1111111111000010
1111111111000100
1111111111001110
1111111111001001
1111111111001011
1111111111111111
1111111111000011
1111111111000111
1111111111001001
1111111111111111
1111111111000110
1111111111001011
1111111111001101
1111111111001011
1111111111000101
1111111111001000
1111111111000101
1111111111001110
1111111111000100
1111111111001001
1111111111001011
1111111111001011
1111111111000111
1111111111001110
1111111111111111
1111111111000100
1111111111001110
1111111111111111
1111111111000101
1111111111001110
1111111111000010
1111111111000101
1111111111001010
1111111111001010
1111111111000101
1111111111001000
1111111111001111
1111111111001110
1111111111000100
1111111111001010
1111111111000111
1111111111000110
1111111111001010
1111111111000111
1111111111000011
1111111111001101
1111111111111111
1111111111001011
1111111111000110
1111111111001010
1111111111000100
1111111111000101
1111111111000110
1111111111001110
1111111111000110
1111111111001000
1111111111001010
1111111111000101
1111111111000110
1111111111001000
1111111111000100
1111111111000110
1111111111001000
1111111111111111
1111111111001000
1111111111001011
1111111111001010
1111111111001101
1111111111001011
1111111111000011
1111111111001010
1111111111000010
1111111111111111
1111111111001100
1111111111001010
1111111111000111
1111111111001011
1111111111000010
1111111111000110
1111111111001101
1111111111000101
1111111111000111
1111111111001110
1111111111001011
1111111111001111
1111111111000110
1111111111001111
1111111111111111
1111111111001110
1111111111000110
1111111111000111
1111111111001111
1111111111001110
1111111111000100
1111111111001100
1111111111001010
1111111111001011
1111111111000100
1111111111000011
1111111111000101
1111111111001001
1111111111001001
1111111111001111
1111111111001001
1111111111001111
1111111111000111
1111111111001110
1111111111001001
1111111111000101
1111111111001000
1111111111111111
1111111111001111
1111111111001011
1111111111001100
1111111111000101
1111111111000010
1111111111111111
1111111111000010
1111111111000011
1111111111000100
1111111111000100
1111111111000111
1111111111001011
1111111111000011
1111111111111111
1111111111001000
1111111111000011
1111111111001001
1111111111001010
1111111111000010
1111111111000111
1111111111001010
1111111111000011
1111111111000110
1111111111001101
1111111111111111
1111111111000011
1111111111001110
1111111111001010
1111111111001110
1111111111001001
1111111111000011
1111111111001010
1111111111001011
1111111111000110
1111111111001000
1111111111000111
1111111111001011
1111111111111111
1111111111000011
1111111111001001
1111111111001001
1111111111000011
1111111111000111
1111111111000101
1111111111001001
1111111111000010
1111111111001110
1111111111001001
1111111111001001
1111111111001110
1111111111001100
1111111111000111
1111111111000100
1111111111001111
1111111111001111
1111111111111111
1111111111001110
1111111111000100
1111111111001011
1111111111001010
1111111111000011
1111111111000110
1111111111001100
1111111111001010
1111111111001001
1111111111000110
1111111111000111
1111111111000101
1111111111001100
1111111111001100
1111111111001001
1111111111000010
1111111111000101
1111111111001000
1111111111001010
1111111111000010
1111111111000010
1111111111001000
1111111111000010
1111111111000111
1111111111111111
1111111111001110
1111111111000110
1111111111001111
1111111111000100
1111111111001010
1111111111000101
1111111111001000
1111111111001111
1111111111000011
1111111111001100
1111111111001000
1111111111001100
1111111111000100
1111111111000101
1111111111001101
1111111111000011
1111111111001011
1111111111001111
1111111111000110
1111111111001011
1111111111001010
1111111111001110
1111111111000110
1111111111000010
1111111111000010
1111111111000101
1111111111111111
1111111111000111
1111111111111111
1111111111000110
1111111111000100
1111111111001000
1111111111000111
1111111111000101
1111111111001110
1111111111001110
1111111111000010
1111111111001001
1111111111001100
1111111111000110
1111111111001100
1111111111000111
1111111111111111
1111111111001111
1111111111111111
1111111111001100
1111111111001010
1111111111001111
1111111111001110
1111111111001111
1111111111001110
1111111111000111
1111111111000010
1111111111000101
1111111111001000
1111111111001000
1111111111001101
1111111111001011
1111111111000011
1111111111001100
1111111111001101
1111111111001110
1111111111001001
1111111111001000
1111111111001111
1111111111111111
1111111111001101
1111111111001101
1111111111111111
1111111111001011
1111111111001011
1111111111000110
1111111111000111
1111111111000011
1111111111000100
1111111111000111
1111111111001010
1111111111111111
1111111111000100
1111111111111111
1111111111001111
1111111111001001
1111111111001110
1111111111000111
1111111111001101
1111111111111111
1111111111001011
1111111111001101
1111111111001010
1111111111001011
1111111111000110
1111111111001101
1111111111001000
1111111111000110
1111111111001111
1111111111001100
1111111111001001
1111111111001000
1111111111000111
1111111111001010
1111111111001011
1111111111001100
1111111111001000
1111111111001011
1111111111001101
1111111111000100
1111111111001111
1111111111001111
1111111111001010
1111111111000101
1111111111001010
1111111111000110
1111111111001111
1111111111111111
1111111111000111
1111111111001001
1111111111001110
1111111111001101
1111111111001111
1111111111000111
1111111111001110
1111111111001100
1111111111001000
1111111111001100
1111111111001110
1111111111001101
1111111111001001
1111111111111111
1111111111001101
1111111111001100
1111111111001101
1111111111001111
1111111111001111
1111111111000100
1111111111001010
1111111111001111
1111111111000011
1111111111001111
1111111111001011
1111111111001100
1111111111000110
1111111111000011
1111111111000011
1111111111000011
1111111111001100
1111111111000110
1111111111000100
1111111111000010
1111111111111111
1111111111000101
1111111111001111
1111111111000110
1111111111001011
1111111111001010
1111111111001111
1111111111000100
1111111111001111
1111111111001111
1111111111001011
1111111111001001
1111111111001001
1111111111000010
1111111111001010
1111111111001111
1111111111001010
1111111111001101
1111111111000101
1111111111001010
1111111111000111
1111111111000011
1111111111111111
1111111111000101
1111111111000010
1111111111001000
1111111111001100
1111111111001101
1111111111001000
1111111111000100
1111111111001010
1111111111001100
1111111111000100
1111111111001111
1111111111000110
1111111111000010
1111111111000101
1111111111000110
1111111111000110
1111111111000100
1111111111000010
1111111111001101
1111111111001110
1111111111000010
1111111111000111
1111111111001100
1111111111001011
1111111111001010
1111111111001100
1111111111000011
1111111111001110
1111111111001111
1111111111001000
1111111111001011
1111111111001011
1111111111111111
1111111111111111
1111111111001111
1111111111001111
1111111111000011
1111111111001110
1111111111000110
1111111111000100
1111111111111111
1111111111001000
1111111111001111
1111111111000010
1111111111001111
1111111111001001
1111111111001011
1111111111001111
1111111111001010
1111111111001010
1111111111001101
1111111111001110
1111111111000011
1111111111000011
1111111111001010
1111111111000011
1111111111000101
1111111111000011
1111111111000111
1111111111001001
1111111111001001
1111111111000110
1111111111000111
1111111111000101
1111111111000100
1111111111001111
1111111111000101
1111111111000010
1111111111001111
1111111111111111
1111111111000100
1111111111000100
1111111111001110
1111111111001011
1111111111001010
1111111111001000
1111111111000110
1111111111001001
1111111111000010
1111111111000011
1111111111000010
1111111111001101
1111111111001100
1111111111001000
1111111111000010
1111111111000101
1111111111000111
1111111111001000
1111111111000010
1111111111001111
1111111111000111
1111111111001010
1111111111001111
1111111111001101
1111111111001100
1111111111000010
1111111111000101
1111111111001101
1111111111001001
1111111111000100
1111111111000011
1111111111001010
1111111111001100
1111111111001101
1111111111001100
1111111111001011
1111111111000010
1111111111001100
1111111111000111
1111111111000110
1111111111000110
1111111111000111
1111111111001110
1111111111000011
1111111111001101
1111111111001010
1111111111001011
1111111111000110
1111111111111111
1111111111001101
1111111111001010
1111111111000011
1111111111001011
1111111111000111
1111111111001000
1111111111001011
1111111111001100
1111111111000110
1111111111000010
1111111111001110
1111111111001111
1111111111001101
1111111111000101
1111111111000100
1111111111000101
1111111111000010
1111111111000110
1111111111111111
1111111111001010
1111111111001010
1111111111001100
1111111111001001
1111111111000100
1111111111001001
1111111111000101
1111111111001011
1111111111000011
1111111111111111
1111111111000110
1111111111000100
1111111111000110
1111111111000011
1111111111001010
1111111111111111
1111111111001000
1111111111001111
1111111111000010
1111111111001101
1111111111000010
1111111111000101
1111111111001110
1111111111001101
1111111111000010
1111111111001010
1111111111111111
1111111111001000
1111111111000101
1111111111001011
1111111111001100
1111111111001111
1111111111001000
1111111111001011
1111111111001001
1111111111000100
1111111111001011
1111111111001010
1111111111111111
1111111111001010
1111111111000111
1111111111001100
1111111111111111
1111111111001101
1111111111001100
1111111111001011
1111111111000010
1111111111000111
1111111111001111
1111111111000110
1111111111000110
1111111111001010
1111111111111111
1111111111000100
1111111111000110
1111111111001101
1111111111001101
1111111111111111
1111111111000101
1111111111001100
1111111111000010
1111111111001111
1111111111000010
1111111111111111
1111111111001011
1111111111001110
1111111111111111
1111111111001100
1111111111001110
1111111111000010
1111111111001101
1111111111001100
1111111111000010
1111111111001000
1111111111001001
1111111111001111
1111111111001101
1111111111000011
1111111111000010
1111111111001011
1111111111111111
1111111111001011
1111111111001111
1111111111000111
1111111111000010
1111111111001100
1111111111001001
1111111111001011
1111111111001001
1111111111000101
1111111111001000
1111111111001000
1111111111001101
1111111111001110
1111111111000100
1111111111001010
1111111111001001
1111111111001000
1111111111001111
1111111111000111
1111111111000101
1111111111000100
1111111111000101
1111111111000100
1111111111001110
1111111111001100
1111111111001000
1111111111001010
1111111111001110
1111111111001000
1111111111000100
1111111111001100
1111111111001100
1111111111000101
1111111111000111
1111111111000111
1111111111001010
1111111111001110
1111111111001001
1111111111000010
1111111111000100
1111111111000101
1111111111001101
1111111111001111
1111111111001110
1111111111001001
1111111111001011
1111111111001011
1111111111000101
1111111111001011
1111111111000011
1111111111000100
1111111111000011
1111111111001001
1111111111000111
1111111111001111
1111111111000110
1111111111000011
1111111111001001
1111111111001110
1111111111000011
1111111111000100
1111111111001001
1111111111000010
1111111111001100
1111111111111111
1111111111001110
1111111111000110
1111111111001100
1111111111111111
1111111111000101
1111111111001110
1111111111001101
1111111111001100
1111111111001101
1111111111001010
1111111111000110
1111111111001100
1111111111000100
1111111111001011
1111111111001000
1111111111000111
1111111111111111
1111111111001000
1111111111001011
1111111111001100
1111111111000011
1111111111000111
1111111111000010
1111111111000010
1111111111001111
1111111111001101
1111111111000100
1111111111000010
1111111111001000
1111111111000010
1111111111001110
1111111111000110
1111111111001111
1111111111000111
1111111111000101
1111111111001110
1111111111000111
1111111111000011
1111111111001001
1111111111001111
1111111111000111
1111111111001001
1111111111001100
1111111111001000
1111111111111111
1111111111001001
1111111111001110
1111111111001111
1111111111111111
1111111111000100
1111111111000110
1111111111000011
1111111111000111
1111111111001100
1111111111000101
1111111111000101
1111111111001101
1111111111001101
1111111111001001
1111111111001000
1111111111001110
1111111111001101
1111111111001101
1111111111001001
1111111111001111
1111111111000100
1111111111000101
1111111111001010
1111111111000011
1111111111000110
1111111111000100
1111111111001100
1111111111000011
1111111111001011
1111111111000101
1111111111001110
1111111111001010
1111111111001011
1111111111111111
1111111111001100
1111111111001010
1111111111001000
1111111111001001
1111111111001100
1111111111000010
1111111111000111
1111111111001000
1111111111000111
1111111111000100
1111111111000110
1111111111000100
1111111111001010
1111111111001111
1111111111001100
1111111111000100
1111111111001100
1111111111001000
1111111111001111
1111111111111111
1111111111000110
1111111111000111
1111111111001100
1111111111111111
1111111111001101
1111111111001100
1111111111000010
1111111111000111
1111111111001011
1111111111000010
1111111111000100
1111111111001001
1111111111001111
1111111111000110
1111111111001101
1111111111001111
1111111111000111
1111111111000111
1111111111111111
1111111111001000
1111111111001001
1111111111000010
1111111111001011
1111111111000110
1111111111001011
1111111111001100
1111111111001000
1111111111001001
1111111111001011
1111111111001110
1111111111001100
1111111111000101
1111111111000110
1111111111001011
1111111111001101
1111111111000110
1111111111001101
1111111111111111
1111111111001011
1111111111111111
1111111111001001
1111111111001001
1111111111001000
1111111111001101
1111111111001010
1111111111001001
1111111111000110
1111111111001110
1111111111000010
1111111111001101
1111111111001110
1111111111000100
1111111111000010
1111111111001111
1111111111000011
1111111111001000
1111111111111111
1111111111000111
1111111111000100
1111111111111111
1111111111000100
1111111111001000
1111111111000100
1111111111001110
1111111111111111
1111111111001010
1111111111001111
1111111111001011
1111111111111111
1111111111000101
1111111111111111
1111111111001111
1111111111001111
1111111111000111
1111111111001100
1111111111000100
1111111111001111
1111111111000101
1111111111000011
1111111111001000
1111111111001011
1111111111001111
1111111111001001
1111111111000010
1111111111001001
1111111111000011
1111111111111111
1111111111001101
1111111111001011
1111111111001011
1111111111001101
1111111111000101
1111111111000110
1111111111001010
1111111111000110
1111111111001011
1111111111001000
1111111111000101
1111111111001100
1111111111001100
1111111111001100
1111111111000111
1111111111001001
1111111111001000
1111111111000110
1111111111000110
1111111111001111
1111111111000110
1111111111000011
1111111111001000
1111111111001110
1111111111001010
1111111111001110
1111111111001010
1111111111001100
1111111111000111
1111111111000110
1111111111001110
1111111111001011
1111111111000010
1111111111000100
1111111111001101
1111111111001011
1111111111111111
1111111111001110
1111111111001010
1111111111000100
1111111111001111
1111111111000110
1111111111000010
1111111111000010
1111111111000111
1111111111000101
1111111111000011
1111111111001011
1111111111001010
1111111111001000
1111111111000100
1111111111001101
1111111111000100
1111111111000111
1111111111001100
1111111111000111
1111111111000100
1111111111001010
1111111111111111
1111111111001000
1111111111111111
1111111111000110
1111111111000110
1111111111001100
1111111111001110
1111111111000100
1111111111001100
1111111111001011
1111111111000011
1111111111001000
1111111111111111
1111111111001001
1111111111001101
1111111111001000
1111111111001111
1111111111000111
1111111111001100
1111111111001111
1111111111001111
1111111111001011
1111111111001010
1111111111001010
1111111111000110
1111111111001110
1111111111000100
1111111111000010
1111111111001000
1111111111001110
1111111111001100
1111111111001010
1111111111000011
1111111111000011
1111111111000111
1111111111001111
1111111111001010
1111111111001000
1111111111001010
1111111111000010
1111111111000100
1111111111000010
1111111111001111
1111111111111111
1111111111000101
1111111111001001
1111111111001001
1111111111001000
1111111111001001
1111111111001110
1111111111001100
1111111111000111
1111111111000110
1111111111001000
1111111111001100
1111111111001101
1111111111001010
1111111111000110
1111111111001011
1111111111000010
1111111111000111
1111111111000011
1111111111001101
1111111111001000
1111111111001001
1111111111001000
1111111111001100
1111111111000110
1111111111000110
1111111111001000
1111111111111111
1111111111000010
1111111111001101
1111111111001111
1111111111001011
1111111111001001
1111111111000010
1111111111001001
1111111111001100
1111111111001111
1111111111001001
1111111111000100
1111111111001011
1111111111001111
1111111111001001
1111111111001100
1111111111001011
1111111111111111
1111111111001011
1111111111001011
1111111111001110
1111111111000011
1111111111001101
1111111111111111
1111111111000101
1111111111001110
1111111111001110
1111111111111111
1111111111000011
1111111111001001
1111111111111111
1111111111000100
1111111111000101
1111111111001100
1111111111000110
1111111111000011
1111111111001110
1111111111001010
1111111111001010
1111111111001101
1111111111001111
1111111111000011
1111111111001011
1111111111001110
1111111111000100
1111111111001111
1111111111001010
1111111111000111
1111111111001110
1111111111001101
1111111111001000
1111111111001000
1111111111001011
1111111111000111
1111111111000011
1111111111000110
1111111111001000
1111111111001100
1111111111000101
1111111111000011
1111111111000111
1111111111001011
1111111111000011
1111111111001000
1111111111001000
1111111111001111
1111111111000110
1111111111001100
1111111111000010
1111111111000111
1111111111001011
1111111111001100
1111111111001000
1111111111001001
1111111111000011
1111111111000111
1111111111001010
1111111111001110
1111111111000100
1111111111000101
1111111111001000
1111111111000110
1111111111001111
1111111111001010
1111111111001001
1111111111001010
1111111111000110
1111111111001111
1111111111000011
1111111111001011
1111111111001010
1111111111001001
1111111111001100
1111111111000101
1111111111001100
1111111111001100
1111111111000110
1111111111001101
1111111111001001
1111111111001001
1111111111001101
1111111111001110
1111111111000010
1111111111001000
1111111111000110
1111111111001001
1111111111001001
1111111111001010
1111111111000111
1111111111001100
1111111111111111
1111111111000110
1111111111001010
1111111111000100
1111111111000101
1111111111000110
1111111111001101
1111111111000101
1111111111001010
1111111111111111
1111111111000101
1111111111000011
1111111111000100
1111111111001001
1111111111000111
1111111111000100
1111111111000110
1111111111001110
1111111111001001
1111111111000101
1111111111001000
1111111111001011
1111111111000111
1111111111000101
1111111111001110
1111111111001010
1111111111001101
1111111111000010
1111111111001110
1111111111001101
1111111111000011
1111111111001010
1111111111001001
1111111111000010
1111111111001111
1111111111111111
1111111111000111
1111111111001011
1111111111000101
1111111111001111
1111111111001111
1111111111001110
1111111111000110
1111111111001001
1111111111000100
1111111111000011
1111111111001000
1111111111000101
1111111111001100
1111111111001011
1111111111000100
1111111111111111
1111111111000110
1111111111000111
1111111111001000
1111111111001011
1111111111001010
1111111111001001
1111111111111111
1111111111000011
1111111111000111
1111111111001100
1111111111001001
1111111111001010
1111111111111111
1111111111000110
1111111111001111
1111111111000100
1111111111000101
1111111111000110
1111111111000101
1111111111001100
1111111111001100
1111111111001101
1111111111111111
1111111111000010
1111111111000111
1111111111001100
1111111111000111
1111111111000101
1111111111000010
1111111111000101
1111111111001001
1111111111001100
1111111111001101
1111111111001010
1111111111000010
1111111111001010
1111111111001111
1111111111000100
1111111111000111
1111111111000101
1111111111000110
1111111111001011
1111111111001110
1111111111001010
1111111111001100
1111111111001101
1111111111001010
1111111111001101
1111111111000100
1111111111001101
1111111111001110
1111111111000100
1111111111000011
1111111111001110
1111111111001100
1111111111000010
1111111111001101
1111111111000101
1111111111001100
1111111111001011
1111111111001111
1111111111000011
1111111111001001
1111111111001111
1111111111000010
1111111111001001
1111111111111111
1111111111001010
1111111111000110
1111111111000110
1111111111001101
1111111111001100
1111111111000011
1111111111111111
1111111111001011
1111111111001110
1111111111000110
1111111111001011
1111111111001011
1111111111001001
1111111111001010
1111111111001011
1111111111001000
1111111111000101
1111111111000100
1111111111000011
1111111111000111
1111111111000111
1111111111000111
1111111111001011
1111111111001100
1111111111000100
1111111111000100
1111111111000011
1111111111111111
1111111111111111
1111111111001010
1111111111001011
1111111111000111
1111111111000011
1111111111001001
1111111111000011
1111111111111111
1111111111000100
1111111111001100
1111111111001110
1111111111000110
1111111111001111
1111111111000010
1111111111000101
1111111111000010
1111111111001100
1111111111111111
1111111111001110
1111111111001001
1111111111111111
1111111111001000
1111111111000010
1111111111001000
1111111111111111
1111111111001001
1111111111000010
1111111111001101
1111111111001011
1111111111000011
1111111111001101
1111111111001110
1111111111001000
1111111111000110
1111111111001101
1111111111000110
1111111111001111
1111111111000011
1111111111001001
1111111111000010
1111111111001101
1111111111000111
1111111111001111
1111111111001010
1111111111001000
1111111111001001
1111111111000100
1111111111001010
1111111111001010
1111111111001001
1111111111001000
1111111111001110
1111111111000010
1111111111000110
1111111111000111
1111111111001111
1111111111000111
1111111111001100
1111111111001101
1111111111000011
1111111111001011
1111111111000111
1111111111001010
1111111111001101
1111111111001010
1111111111001110
1111111111001000
1111111111001001
1111111111001100
1111111111001111
1111111111001011
1111111111001111
1111111111000011
1111111111111111
1111111111001010
1111111111001110
1111111111000100
1111111111001110
1111111111001000
1111111111000100
1111111111001000
1111111111000111
1111111111001011
1111111111001111
1111111111001011
1111111111000110
1111111111000111
1111111111001011
1111111111000110
1111111111000010
1111111111001010
1111111111000100
1111111111000100
1111111111000101
1111111111000010
1111111111001100
1111111111000100
1111111111000110
1111111111001101
1111111111000011
1111111111000101
1111111111001000
1111111111001111
1111111111001101
1111111111000110
1111111111111111
1111111111000101
1111111111001100
1111111111000101
1111111111000010
1111111111001111
1111111111000011
1111111111000110
1111111111000101
1111111111001001
1111111111001011
1111111111000110
1111111111000100
1111111111000011
1111111111000011
1111111111001000
1111111111000111
1111111111000011
1111111111001101
1111111111000111
1111111111001000
1111111111001100
1111111111001110
1111111111001000
1111111111000111
1111111111000111
1111111111001100
1111111111000010
1111111111000100
1111111111000100
1111111111001100
1111111111000100
1111111111000110
1111111111000110
1111111111001100
1111111111111111
1111111111000100
1111111111000110
1111111111001110
1111111111001011
1111111111000100
1111111111000101
1111111111001100
1111111111000110
1111111111001110
1111111111001010
1111111111000101
1111111111001011
1111111111000101
1111111111111111
1111111111000100
1111111111001000
1111111111000111
1111111111001100
1111111111000010
1111111111000010
1111111111001001
1111111111000011
1111111111001010
1111111111000111
1111111111001000
1111111111000100
1111111111000011
1111111111001011
1111111111001001
1111111111000111
1111111111000011
1111111111001001
1111111111001111
1111111111111111
1111111111001101
1111111111000100
1111111111000110
1111111111001110
1111111111001000
1111111111001010
1111111111000010
1111111111001000
1111111111001001
1111111111000111
1111111111001010
1111111111001000
1111111111000101
1111111111001110
1111111111001001
1111111111001011
1111111111001011
1111111111000110
1111111111000110
1111111111001100
1111111111001111
1111111111000010
1111111111111111
1111111111001011
1111111111001010
1111111111001100
1111111111000100
1111111111001110
1111111111000111
1111111111000110
1111111111000110
1111111111111111
1111111111000111
1111111111000010
1111111111001001
1111111111001100
1111111111000010
1111111111000101
1111111111000110
1111111111000111
1111111111001110
1111111111001001
1111111111001100
1111111111001010
1111111111001111
1111111111000010
1111111111000011
1111111111000111
1111111111001010
1111111111000111
1111111111000010
1111111111000101
1111111111000010
1111111111000011
1111111111000111
1111111111000111
1111111111000111
1111111111111111
1111111111001011
1111111111000111
1111111111001001
1111111111000110
1111111111000101
1111111111001111
1111111111001111
1111111111111111
1111111111001000
1111111111001101
1111111111000111
1111111111000010
1111111111001101
1111111111000111
1111111111001111
1111111111001011
1111111111001001
1111111111001101
1111111111001001
1111111111000010
1111111111000101
1111111111001000
1111111111000100
1111111111000010
1111111111001010
1111111111001001
1111111111001110
1111111111001000
1111111111000110
1111111111001001
1111111111000101
1111111111000010
1111111111111111
1111111111000010
1111111111001111
1111111111001101
1111111111001100
1111111111001111
1111111111001011
1111111111111111
1111111111001011
1111111111000011
1111111111001111
1111111111001100
1111111111111111
1111111111111111
1111111111000101
1111111111001000
1111111111000110
1111111111000101
1111111111001011
1111111111001100
1111111111001110
1111111111001001
1111111111000110
1111111111001111
1111111111001001
1111111111001011
1111111111001111
1111111111000010
1111111111001101
1111111111001100
1111111111000011
1111111111001100
1111111111001110
1111111111111111
1111111111001111
1111111111000011
1111111111000011
1111111111001001
1111111111000011
1111111111001000
1111111111000010
1111111111001100
1111111111001001
1111111111000010
1111111111000111
1111111111000100
1111111111111111
1111111111001111
1111111111000110
1111111111111111
1111111111001011
1111111111000010
1111111111001010
1111111111001011
1111111111001111
1111111111001000
1111111111000111
1111111111000100
1111111111001101
1111111111001010
1111111111001010
1111111111001110
1111111111001000
1111111111000111
1111111111001011
1111111111000011
1111111111001111
1111111111001011
1111111111000101
1111111111111111
1111111111001100
1111111111000101
1111111111000010
1111111111001101
1111111111000100
1111111111000101
1111111111000101
1111111111000011
1111111111001111
1111111111001101
1111111111000010
1111111111001001
1111111111000010
1111111111001100
1111111111001000
1111111111000100
1111111111000101
1111111111001100
1111111111000010
1111111111000111
1111111111000011
1111111111000111
1111111111000011
1111111111001111
1111111111001011
1111111111000100
1111111111000101
1111111111000110
1111111111000101
1111111111000011
1111111111111111
1111111111000100
1111111111000100
1111111111001111
1111111111000011
1111111111000110
1111111111000010
1111111111001001
1111111111000010
1111111111001111
1111111111111111
1111111111001000
1111111111001010
1111111111001100
1111111111000100
1111111111000101
1111111111111111
1111111111000100
1111111111001010
1111111111000100
1111111111001100
1111111111001101
1111111111000100
1111111111000010
1111111111000100
1111111111000110
1111111111000010
1111111111000100
1111111111000111
1111111111001110
1111111111000101
1111111111000111
1111111111000011
1111111111001100
1111111111001111
1111111111001000
1111111111001111
1111111111000101
1111111111000111
1111111111000110
1111111111001100
1111111111000100
1111111111001110
1111111111001100
1111111111001110
1111111111001111
1111111111001100
1111111111000100
1111111111001011
1111111111001101
1111111111111111
1111111111111111
1111111111001011
1111111111000111
1111111111000011
1111111111001010
1111111111001101
1111111111000100
1111111111000011
1111111111111111
1111111111000100
1111111111000110
1111111111001100
1111111111000101
1111111111001101
1111111111001000
1111111111001000
1111111111001010
1111111111001000
1111111111001110
1111111111000011
1111111111001010
1111111111001010
1111111111001010
1111111111001011
1111111111000011
1111111111001010
1111111111001001
1111111111001111
1111111111001110
1111111111000100
1111111111000011
1111111111001011
1111111111000111
1111111111001000
1111111111001101
1111111111000100
1111111111001010
1111111111001111
1111111111001110
1111111111000101
1111111111001010
1111111111000101
1111111111000111
1111111111001111
1111111111000100
1111111111001010
1111111111000100
1111111111001001
1111111111001100
1111111111001001
1111111111000101
1111111111000101
1111111111000111
1111111111000010
1111111111001101
1111111111000010
1111111111001011
1111111111001001
1111111111000110
1111111111001011
1111111111001110
1111111111000100
1111111111001000
1111111111001110
1111111111001100
1111111111111111
1111111111001100
1111111111001010
1111111111001000
1111111111001110
1111111111001001
1111111111001110
1111111111001011
1111111111001010
1111111111000011
1111111111001001
1111111111001101
1111111111000010
1111111111111111
1111111111000111
1111111111000111
1111111111000011
1111111111001001
1111111111001110
1111111111000111
1111111111001000
1111111111000101
1111111111000101
1111111111001111
1111111111001001
1111111111000101
1111111111000011
1111111111000110
1111111111000111
1111111111000010
1111111111111111
1111111111000010
1111111111000100
1111111111001011
1111111111000101
1111111111000111
1111111111000011
1111111111001111
1111111111111111
1111111111000110
1111111111001011
1111111111000111
1111111111000011
1111111111001011
1111111111001011
1111111111000011
1111111111111111
1111111111000101
1111111111000110
1111111111001000
1111111111001111
1111111111000011
1111111111001111
1111111111001110
1111111111000101
1111111111001110
1111111111000011
1111111111111111
1111111111001000
1111111111000011
1111111111001011
1111111111001011
1111111111001001
1111111111111111
1111111111000110
1111111111000011
1111111111001010
1111111111001011
1111111111000101
1111111111001001
1111111111001001
1111111111000111
1111111111000010
1111111111000111
1111111111001111
1111111111000101
1111111111000110
1111111111001000
1111111111001100
1111111111000101
1111111111000111
1111111111001101
1111111111111111
1111111111001110
1111111111001110
1111111111000100
1111111111001101
1111111111000110
1111111111001111
1111111111001101
1111111111000111
1111111111001001
1111111111000100
1111111111000010
1111111111111111
1111111111000010
1111111111000110
1111111111000011
1111111111000110
1111111111001010
1111111111111111
1111111111000011
1111111111001110
1111111111001111
1111111111111111
1111111111000100
1111111111001100
1111111111001110
1111111111001010
1111111111000011
1111111111000010
1111111111000100
1111111111000101
1111111111000011
1111111111001110
1111111111111111
1111111111001111
1111111111001110
1111111111001101
1111111111000011
1111111111000100
1111111111001011
1111111111000110
1111111111001111
1111111111001111
1111111111000010
1111111111001010
1111111111001111
1111111111000111
1111111111000010
1111111111001101
1111111111001011
1111111111000100
1111111111001000
1111111111000110
1111111111001100
1111111111000010
1111111111000011
1111111111000011
1111111111001000
1111111111000110
1111111111001000
1111111111000101
1111111111000011
1111111111001110
1111111111001001
1111111111001001
1111111111000100
1111111111001011
1111111111001011
1111111111000011
1111111111001100
1111111111000100
1111111111111111
1111111111000111
1111111111000011
1111111111000110
1111111111000101
1111111111001010
1111111111000101
1111111111001001
1111111111001011
1111111111000011
1111111111111111
1111111111001000
1111111111001001
1111111111000010
1111111111001110
1111111111000100
1111111111001100
1111111111000101
1111111111001001
1111111111001100
1111111111001000
1111111111001101
1111111111001100
1111111111001100
1111111111001011
1111111111000110
1111111111000011
1111111111001100
1111111111000011
1111111111001001
1111111111000011
1111111111001010
1111111111000101
1111111111000100
1111111111111111
1111111111000100
1111111111001001
1111111111001000
1111111111000100
1111111111000011
1111111111000110
1111111111001011
1111111111111111
1111111111000010
1111111111111111
1111111111001000
1111111111001110
1111111111111111
1111111111000010
1111111111000111
1111111111001001
1111111111001101
1111111111001111
1111111111001110
1111111111001100
1111111111000010
1111111111111111
1111111111001111
1111111111000011
1111111111000111
1111111111001000
1111111111111111
1111111111001111
1111111111001011
1111111111111111
1111111111001001
1111111111001100
1111111111001011
1111111111111111
1111111111000011
1111111111111111
1111111111001011
1111111111000011
1111111111000010
1111111111001001
1111111111000011
1111111111000011
1111111111000101
1111111111111111
1111111111000101
1111111111001000
1111111111001010
1111111111001110
1111111111001111
1111111111001011
1111111111001000
1111111111001000
1111111111000010
1111111111001110
1111111111000100
1111111111001101
1111111111001001
1111111111000011
1111111111000100
1111111111001001
1111111111001100
1111111111001100
1111111111000101
1111111111001110
1111111111000110
1111111111001000
1111111111001011
1111111111000101
1111111111001100
1111111111000010
1111111111000100
1111111111001110
1111111111000101
1111111111000100
1111111111001011
1111111111000111
1111111111001100
1111111111001001
1111111111000010
1111111111000110
1111111111000010
1111111111001111
1111111111001100
1111111111000101
1111111111001000
1111111111001010
1111111111000110
1111111111001111
1111111111000100
1111111111000011
1111111111001101
1111111111001011
1111111111000111
1111111111000111
1111111111001111
1111111111000110
1111111111000010
1111111111001100
1111111111000011
1111111111001110
1111111111001000
1111111111001011
1111111111001000
1111111111001011
1111111111001011
1111111111111111
1111111111001000
1111111111001110
1111111111000101
1111111111111111
1111111111001010
1111111111001010
1111111111000110
1111111111001001
1111111111001010
1111111111001001
1111111111001100
1111111111001011
1111111111001110
1111111111001001
1111111111001100
1111111111001100
1111111111001111
1111111111000111
1111111111001010
1111111111001010
1111111111000101
1111111111001000
1111111111000101
1111111111000010
1111111111000101
1111111111001011
1111111111001101
1111111111000100
1111111111001011
1111111111111111
1111111111001001
1111111111000101
1111111111001000
1111111111000111
1111111111001111
1111111111000101
1111111111111111
1111111111000010
1111111111000101
1111111111001111
1111111111000011
1111111111000011
1111111111001000
1111111111001100
1111111111001111
1111111111001100
1111111111000110
1111111111001100
1111111111111111
1111111111001011
1111111111001111
1111111111001010
1111111111001000
1111111111000110
1111111111000110
1111111111000110
1111111111111111
1111111111001000
1111111111001010
1111111111001000
1111111111001111
1111111111001101
1111111111001111
1111111111000110
1111111111001100
1111111111001010
1111111111001110
1111111111000100
1111111111001101
1111111111001111
1111111111001101
1111111111001010
1111111111001111
1111111111000110
1111111111001110
1111111111001110
1111111111000100
1111111111000101
1111111111000100
1111111111001111
1111111111000011
1111111111000010
1111111111000100
1111111111001011
1111111111000101
1111111111001001
1111111111001010
1111111111001001
1111111111001000
1111111111001110
1111111111000100
1111111111000011
1111111111001000
1111111111001100
1111111111001001
1111111111000011
1111111111000011
1111111111001111
1111111111111111
1111111111001100
1111111111001101
1111111111001001
1111111111001101
1111111111001001
1111111111000010
1111111111000011
1111111111000101
1111111111000010
1111111111001001
1111111111001110
1111111111000111
1111111111001101
1111111111001111
1111111111001101
1111111111000110
1111111111000110
1111111111001101
1111111111000011
1111111111001111
1111111111000100
1111111111000110
1111111111000111
1111111111000011
1111111111001111
1111111111001000
1111111111001101
1111111111000101
1111111111000100
1111111111000010
1111111111000100
1111111111000111
1111111111001010
1111111111000010
1111111111001010
1111111111111111
1111111111000010
1111111111001011
1111111111001101
1111111111000101
1111111111000100
1111111111000101
1111111111000011
1111111111001110
1111111111000010
1111111111111111
1111111111001100
1111111111001001
1111111111001110
1111111111000110
1111111111000101
1111111111111111
1111111111001100
1111111111000011
1111111111001101
1111111111001111
1111111111000011
1111111111000111
1111111111001000
1111111111000110
1111111111000110
1111111111000010
1111111111111111
1111111111001011
1111111111001001
1111111111001011
1111111111111111
1111111111001111
1111111111000011
1111111111001010
1111111111001001
1111111111000110
1111111111111111
1111111111001000
1111111111000011
1111111111001101
1111111111001110
1111111111000101
1111111111001100
1111111111001001
1111111111000101
1111111111000110
1111111111001011
1111111111001111
1111111111000111
1111111111000010
1111111111001110
1111111111001101
1111111111001001
1111111111001000
1111111111001101
1111111111001010
1111111111001010
1111111111001010
1111111111000010
1111111111001101
1111111111001101
1111111111000110
1111111111000110
1111111111001101
1111111111001100
1111111111001001
1111111111001010
1111111111000110
1111111111000101
1111111111001110
1111111111001111
1111111111001100
1111111111001000
1111111111001001
1111111111001111
1111111111001100
1111111111000010
1111111111001011
1111111111000111
1111111111001001
1111111111001110
1111111111001100
1111111111000101
1111111111001111
1111111111001010
1111111111001011
1111111111001101
1111111111001110
1111111111000011
1111111111001100
1111111111111111
1111111111001000
1111111111111111
1111111111001000
1111111111000011
1111111111001001
1111111111001001
1111111111000010
1111111111001111
1111111111001011
1111111111001001
1111111111001011
1111111111000010
1111111111000100
1111111111000011
1111111111111111
1111111111000110
1111111111001000
1111111111001010
1111111111001011
1111111111111111
1111111111001101
1111111111001000
1111111111111111
1111111111001000
1111111111001010
1111111111000110
1111111111001000
1111111111000010
1111111111111111
1111111111001000
1111111111111111
1111111111000110
1111111111001111
1111111111000100
1111111111111111
1111111111001101
1111111111000011
1111111111001101
1111111111000010
1111111111001110
1111111111001100
1111111111001100
1111111111001000
1111111111111111
1111111111001010
1111111111001110
1111111111001101
1111111111001110
1111111111001000
1111111111001111
1111111111000011
1111111111000101
1111111111000101
1111111111000100
1111111111000111
1111111111000111
1111111111001010
1111111111001000
1111111111001101
1111111111000111
1111111111000011
1111111111001011
1111111111001001
1111111111000101
1111111111001101
1111111111111111
1111111111001010
1111111111111111
1111111111001110
1111111111000010
1111111111000011
1111111111001110
1111111111000110
1111111111000110
1111111111001100
1111111111000110
1111111111000101
1111111111001000
1111111111000110
1111111111001100
1111111111000111
1111111111000101
1111111111000101
1111111111001011
1111111111000101
1111111111000110
1111111111001110
1111111111000011
1111111111000101
1111111111001100
1111111111000100
1111111111001110
1111111111001000
1111111111001110
1111111111001001
1111111111000101
1111111111001111
1111111111000101
1111111111001101
1111111111000101
1111111111001101
1111111111001011
1111111111000101
1111111111001011
1111111111000111
1111111111001111
1111111111000110
1111111111000011
1111111111001010
1111111111111111
1111111111000101
1111111111111111
1111111111001001
1111111111001011
1111111111001011
1111111111001001
1111111111001111
1111111111001001
1111111111000010
1111111111001010
1111111111000100
1111111111000111
1111111111000111
1111111111001000
1111111111001001
1111111111000100
1111111111001011
1111111111001111
1111111111001100
1111111111001011
1111111111001110
1111111111001101
1111111111001011
1111111111000111
1111111111000010
1111111111001110
1111111111001010
1111111111001100
1111111111001110
1111111111000011
1111111111000010
1111111111001100
1111111111001010
1111111111001100
1111111111001000
1111111111000110
1111111111001101
1111111111001001
1111111111000111
1111111111001010
1111111111000110
1111111111000100
1111111111000011
1111111111001011
1111111111000011
1111111111000100
1111111111000110
1111111111001100
1111111111001011
1111111111001010
1111111111001000
1111111111001111
1111111111001101
1111111111111111
1111111111000100
1111111111000011
1111111111001110
1111111111000100
1111111111001011
1111111111001110
1111111111001101
1111111111111111
1111111111000011
1111111111001010
1111111111001110
1111111111001000
1111111111000010
1111111111001011
1111111111000110
1111111111001000
1111111111001001
1111111111001010
1111111111000111
1111111111000100
1111111111001000
1111111111001010
1111111111000100
1111111111001001
1111111111000101
1111111111001001
1111111111000011
1111111111001010
1111111111111111
1111111111000011
1111111111000100
1111111111000110
1111111111001110
1111111111000111
1111111111001001
1111111111001001
1111111111001001
1111111111001110
1111111111111111
1111111111111111
1111111111000111
1111111111001011
1111111111001001
1111111111000110
1111111111000111
1111111111001100
1111111111000111
1111111111001011
1111111111000010
1111111111001110
1111111111001101
1111111111001001
1111111111001100
1111111111001010
1111111111111111
1111111111001101
1111111111001011
1111111111001010
1111111111001010
1111111111000101
1111111111001000
1111111111001110
1111111111001011
1111111111001010
1111111111001010
1111111111001110
1111111111000110
1111111111001000
1111111111000111
1111111111001110
1111111111001100
1111111111000101
1111111111001111
1111111111001000
1111111111001111
1111111111001000
1111111111000101
1111111111000010
1111111111000011
1111111111001101
1111111111001111
1111111111000010
1111111111001101
1111111111001001
1111111111000101
1111111111111111
1111111111000100
1111111111001110
1111111111000011
1111111111001101
1111111111001000
1111111111001011
1111111111000011
1111111111000111
1111111111001000
1111111111001001
1111111111001101
1111111111001011
1111111111000010
1111111111001111
1111111111000101
1111111111000110
1111111111000101
1111111111000111
1111111111000111
1111111111001000
1111111111111111
1111111111001001
1111111111000100
1111111111001000
1111111111000010
1111111111111111
1111111111001100
1111111111001001
1111111111000010
1111111111000110
1111111111001000
1111111111000110
1111111111000110
1111111111001101
1111111111001010
1111111111001010
1111111111001000
1111111111001101
1111111111001010
1111111111000111
1111111111111111
1111111111001100
1111111111001101
1111111111001000
1111111111111111
1111111111000100
1111111111001001
1111111111001101
1111111111000101
1111111111000010
1111111111001011
1111111111001011
1111111111000011
1111111111001111
1111111111000111
1111111111001011
1111111111111111
1111111111001110
1111111111000111
1111111111001111
1111111111000101
1111111111001001
1111111111000101
1111111111001110
1111111111001010
1111111111111111
1111111111000010
1111111111001000
1111111111001011
1111111111001110
1111111111000111
1111111111001000
1111111111001101
1111111111000110
1111111111001111
1111111111001000
1111111111001000
1111111111001001
1111111111000111
1111111111000011
1111111111000011
1111111111001111
1111111111000110
1111111111111111
1111111111001000
1111111111000110
1111111111111111
1111111111001011
1111111111001010
1111111111000100
1111111111000010
1111111111001001
1111111111111111
1111111111000111
1111111111001101
1111111111111111
1111111111001110
1111111111000011
1111111111001011
1111111111000101
1111111111000111
1111111111000010
1111111111001000
1111111111000010
1111111111000010
1111111111001100
1111111111000100
1111111111000010
1111111111111111
1111111111000101
1111111111001010
1111111111000100
1111111111000011
1111111111000010
1111111111001110
1111111111000110
1111111111000101
1111111111000100
1111111111000111
1111111111001010
1111111111001000
1111111111001101
1111111111000101
1111111111001011
1111111111000110
1111111111001111
1111111111001101
1111111111001001
1111111111000100
1111111111111111
1111111111001010
1111111111000010
1111111111000101
1111111111001100
1111111111000010
1111111111000111
1111111111001111
1111111111000010
1111111111001000
1111111111111111
1111111111000101
1111111111001100
1111111111001110
1111111111000110
1111111111000011
1111111111000111
1111111111001100
1111111111000100
1111111111111111
1111111111000010
1111111111001111
1111111111000010
1111111111001010
1111111111001101
1111111111000110
1111111111001010
1111111111001010
1111111111000100
1111111111000011
1111111111000011
1111111111001111
1111111111001110
1111111111001001
1111111111001000
1111111111000100
1111111111000111
1111111111001110
1111111111000101
1111111111000011
1111111111000010
1111111111000010
1111111111001100
1111111111000100
1111111111001110
1111111111001111
1111111111000101
1111111111000101
1111111111001110
1111111111000110
1111111111001001
1111111111000111
1111111111001100
1111111111000110
1111111111001110
1111111111001000
1111111111000011
1111111111000100
1111111111000011
1111111111111111
1111111111000100
1111111111001011
1111111111001011
1111111111001001
1111111111000100
1111111111001001
1111111111001001
1111111111000011
1111111111000010
1111111111000110
1111111111001110
1111111111000110
1111111111001110
1111111111000111
1111111111001011
1111111111000101
1111111111001100
1111111111001101
1111111111001011
1111111111001010
1111111111000011
1111111111001001
1111111111000111
1111111111001011
1111111111000100
1111111111001010
1111111111001011
1111111111001100
1111111111000110
1111111111001110
1111111111000101
1111111111001011
1111111111001110
1111111111001011
1111111111001011
1111111111001011
1111111111000011
1111111111000011
1111111111001111
1111111111001110
1111111111000110
1111111111001010
1111111111000111
1111111111000111
1111111111001000
1111111111000111
1111111111000010
1111111111001000
1111111111001000
1111111111001010
1111111111001110
1111111111000111
1111111111001011
1111111111001100
1111111111111111
1111111111001111
1111111111001100
1111111111001110
1111111111001111
1111111111001000
1111111111000110
1111111111000010
1111111111111111
1111111111000010
1111111111001110
1111111111000010
1111111111000011
1111111111111111
1111111111001010
1111111111001111
1111111111001000
1111111111111111
1111111111001011
1111111111000111
1111111111001110
1111111111000101
1111111111000011
1111111111001111
1111111111111111
1111111111001110
1111111111000110
1111111111001100
1111111111000101
1111111111000011
1111111111001000
1111111111001101
1111111111001000
1111111111001110
1111111111000100
1111111111000010
1111111111001101
1111111111001100
1111111111000111
1111111111001011
1111111111111111
1111111111000111
1111111111001000
1111111111000010
1111111111001110
1111111111001001
1111111111000110
1111111111001100
1111111111001100
1111111111000101
1111111111001110
1111111111001100
1111111111001011
1111111111001110
1111111111001101
1111111111000111
1111111111000010
1111111111000010
1111111111000011
1111111111000011
1111111111001111
1111111111001101
1111111111001010
1111111111000101
1111111111000101
1111111111001010
1111111111001111
1111111111000110
1111111111000100
1111111111001001
1111111111001001
1111111111111111
1111111111000110
1111111111001111
1111111111000011
1111111111001001
1111111111001100
1111111111000100
1111111111001001
1111111111001000
1111111111000111
1111111111001101
1111111111001011
1111111111001110
1111111111001110
1111111111111111
1111111111000101
1111111111001110
1111111111001010
1111111111000010
1111111111000111
1111111111001000
1111111111000101
1111111111000010
1111111111000011
1111111111000111
1111111111111111
1111111111001010
1111111111001010
1111111111000011
1111111111000011
1111111111111111
1111111111001100
1111111111001110
1111111111000010
1111111111001001
1111111111001011
1111111111000100
1111111111001111
1111111111001010
1111111111001011
1111111111000110
1111111111000111
1111111111000011
1111111111111111
1111111111000101
1111111111111111
1111111111000011
1111111111000110
1111111111000010
1111111111001100
1111111111000101
1111111111001101
1111111111001010
1111111111001110
1111111111000111
1111111111001010
1111111111001001
1111111111001010
1111111111000100
1111111111001011
1111111111001110
1111111111001010
1111111111001001
1111111111001001
1111111111001000
1111111111001101
1111111111001010
1111111111001101
1111111111001100
1111111111000110
1111111111000111
1111111111001001
1111111111111111
1111111111000010
1111111111001101
1111111111000101
1111111111001011
1111111111001110
1111111111001101
1111111111000011
1111111111000101
1111111111001000
1111111111000100
1111111111111111
1111111111001100
1111111111111111
1111111111001010
1111111111000100
1111111111000110
1111111111001011
1111111111000011
1111111111000011
1111111111001000
1111111111001110
1111111111001111
1111111111001110
1111111111111111
1111111111001010
1111111111001111
1111111111001100
1111111111000010
1111111111001001
1111111111000111
1111111111000101
1111111111001100
1111111111001000
1111111111111111
1111111111000111
1111111111001011
1111111111000111
1111111111001011
1111111111001111
1111111111000011
1111111111000110
1111111111000101
1111111111001000
1111111111000011
1111111111000010
1111111111001100
1111111111000110
1111111111000100
1111111111000011
1111111111001010
1111111111001010
1111111111000100
1111111111001001
1111111111001111
1111111111000011
1111111111111111
1111111111001101
1111111111001111
1111111111001000
1111111111001100
1111111111111111
1111111111001100
1111111111000010
1111111111000010
1111111111000110
1111111111000111
1111111111000100
1111111111000101
1111111111001001
1111111111001000
1111111111000010
1111111111000010
1111111111001001
1111111111000111
1111111111001010
1111111111111111
1111111111000011
1111111111111111
1111111111000011
1111111111000100
1111111111111111
1111111111000111
1111111111001001
1111111111000100
1111111111001010
1111111111000110
1111111111001101
1111111111001110
1111111111000010
1111111111001010
1111111111001010
1111111111000101
1111111111001001
1111111111001001
1111111111001101
1111111111001001
1111111111001101
1111111111111111
1111111111111111
1111111111001111
1111111111001101
1111111111000111
1111111111000100
1111111111000100
1111111111001110
1111111111001000
1111111111000101
1111111111000010
1111111111001011
1111111111001000
1111111111000010
1111111111000010
1111111111111111
1111111111000110
1111111111001101
1111111111111111
1111111111000101
1111111111000100
1111111111001110
1111111111000011
1111111111000011
1111111111001101
1111111111111111
1111111111000101
1111111111000101
1111111111001000
1111111111001111
1111111111000111
1111111111001010
1111111111000011
1111111111001001
1111111111000110
1111111111001110
1111111111000110
1111111111000010
1111111111001100
1111111111001001
1111111111001011
1111111111001111
1111111111001011
1111111111000010
1111111111001110
1111111111000110
1111111111000101
1111111111000100
1111111111000010
1111111111000110
1111111111001000
1111111111000010
1111111111000111
1111111111111111
1111111111000101
1111111111001001
1111111111000111
1111111111111111
1111111111001000
1111111111000011
1111111111000110
1111111111001001
1111111111000011
1111111111001100
1111111111000110
1111111111111111
1111111111001110
1111111111001101
1111111111001010
1111111111001111
1111111111001010
1111111111001000
1111111111000010
1111111111001011
1111111111000111
1111111111001110
1111111111001110
1111111111001110
1111111111001101
1111111111111111
1111111111000011
1111111111001011
1111111111000101
1111111111000110
1111111111001110
1111111111001011
1111111111000100
1111111111000100
1111111111111111
1111111111001110
1111111111001101
1111111111001001
1111111111000010
1111111111001101
1111111111001010
1111111111111111
1111111111111111
1111111111111111
1111111111001000
1111111111001001
1111111111000010
1111111111001100
1111111111000111
1111111111001001
1111111111000100
1111111111000010
1111111111000110
1111111111001101
1111111111001101
1111111111000110
1111111111001011
1111111111000110
1111111111111111
1111111111001101
1111111111001101
1111111111001011
1111111111001101
1111111111000010
1111111111000011
1111111111000011
1111111111000100
1111111111001100
1111111111001000
1111111111001010
1111111111001100
1111111111000100
1111111111111111
1111111111001011
1111111111001110
1111111111001111
1111111111001100
1111111111001110
1111111111000010
1111111111000011
1111111111001011
1111111111001001
1111111111001000
1111111111001000
1111111111001111
1111111111001101
1111111111001010
1111111111000110
1111111111001111
1111111111111111
1111111111001001
1111111111001000
1111111111001111
1111111111001101
1111111111000101
1111111111111111
1111111111000110
1111111111001101
1111111111000110
1111111111000011
1111111111001110
1111111111000110
1111111111001110
1111111111001110
1111111111001100
1111111111000011
1111111111000110
1111111111001101
1111111111000111
1111111111000100
1111111111001111
1111111111001001
1111111111001111
1111111111001000
1111111111001111
1111111111001110
1111111111001111
1111111111000010
1111111111000010
1111111111000110
1111111111000110
1111111111000110
1111111111001101
1111111111001011
1111111111001111
1111111111000100
1111111111001001
1111111111000101
1111111111000010
1111111111001000
1111111111001101
1111111111000110
1111111111001111
1111111111001110
1111111111000011
1111111111000101
1111111111001011
1111111111001010
1111111111000110
1111111111000111
1111111111000010
1111111111001000
1111111111000010
1111111111000010
1111111111000100
1111111111111111
1111111111000111
1111111111000111
1111111111000010
1111111111000011
1111111111001010
1111111111000100
1111111111001001
1111111111000010
1111111111000010
1111111111111111
1111111111001100
1111111111000101
1111111111000101
1111111111000100
1111111111000110
1111111111000111
1111111111001001
1111111111111111
1111111111001001
1111111111001010
1111111111000110
1111111111001000
1111111111000011
1111111111001111
1111111111000111
1111111111000110
1111111111000101
1111111111001000
1111111111001111
1111111111000111
1111111111000110
1111111111000110
1111111111000110
1111111111001100
1111111111000110
1111111111001100
1111111111000101
1111111111000010
1111111111001111
1111111111000110
1111111111001111
1111111111001001
1111111111000110
1111111111000011
1111111111001000
1111111111000101
1111111111001000
1111111111001001
1111111111000110
1111111111000111
1111111111001010
1111111111111111
1111111111001000
1111111111001111
1111111111000010
1111111111000011
1111111111111111
1111111111000100
1111111111000111
1111111111000010
1111111111001011
1111111111001011
1111111111001110
1111111111001100
1111111111000100
1111111111000111
1111111111001100
1111111111001001
1111111111000010
1111111111001010
1111111111001111
1111111111000010
1111111111000100
1111111111001011
1111111111001010
1111111111000100
1111111111000110
1111111111001000
1111111111001001
1111111111111111
1111111111001010
1111111111111111
1111111111111111
1111111111000101
1111111111000111
1111111111001000
1111111111000111
1111111111000011
1111111111001010
1111111111001000
1111111111001111
1111111111111111
1111111111001111
1111111111001000
1111111111001001
1111111111001010
1111111111000100
1111111111000101
1111111111001111
1111111111001110
1111111111000101
1111111111001100
1111111111001100
1111111111001000
1111111111001011
1111111111001000
1111111111111111
1111111111001010
1111111111000110
1111111111001111
1111111111000101
1111111111001010
1111111111001111
1111111111000110
1111111111000111
1111111111001011
1111111111000101
1111111111111111
1111111111001100
1111111111000111
1111111111001110
1111111111001010
1111111111001100
1111111111000011
1111111111111111
1111111111001111
1111111111001011
1111111111000111
1111111111000101
1111111111000011
1111111111000111
1111111111000101
1111111111111111
1111111111001000
1111111111000111
1111111111001011
1111111111001101
1111111111000100
1111111111000100
1111111111000101
1111111111111111
1111111111000011
1111111111000101
1111111111001001
1111111111111111
1111111111001110
1111111111000010
1111111111000011
1111111111001111
1111111111001010
1111111111001110
1111111111001100
1111111111001001
1111111111000011
1111111111000100
1111111111001100
1111111111000011
1111111111001000
1111111111001111
1111111111000100
1111111111000110
1111111111001001
1111111111000111
1111111111000110
1111111111001111
1111111111001100
1111111111001101
1111111111001100
1111111111001000
1111111111001011
1111111111001000
1111111111001000
1111111111001111
1111111111001101
1111111111000101
1111111111000011
1111111111001110
1111111111001000
1111111111000111
1111111111111111
1111111111001001
1111111111001100
1111111111000100
1111111111000101
1111111111001011
1111111111000101
1111111111000011
1111111111001100
1111111111001010
1111111111001101
1111111111001000
1111111111001101
1111111111000010
1111111111001100
1111111111001011
1111111111001100
1111111111001010
1111111111001111
1111111111001101
1111111111001111
1111111111001000
1111111111001001
1111111111000011
1111111111001000
1111111111000101
1111111111001010
1111111111001100
1111111111001000
1111111111000111
1111111111001010
1111111111001111
1111111111000101
1111111111000100
1111111111001100
1111111111001110
1111111111000110
1111111111001101
1111111111001101
1111111111000110
1111111111000010
1111111111001010
1111111111001111
1111111111000111
1111111111000100
1111111111000011
1111111111001101
1111111111001100
1111111111000111
1111111111001011
1111111111000100
1111111111000111
1111111111001111
1111111111001000
1111111111001010
1111111111000101
1111111111000011
1111111111111111
1111111111111111
1111111111000101
1111111111001011
1111111111000011
1111111111000011
1111111111000011
1111111111001100
1111111111000100
1111111111000010
1111111111001111
1111111111001111
1111111111000011
1111111111001011
1111111111001101
1111111111000110
1111111111000110
1111111111001111
1111111111001000
1111111111001110
1111111111001010
1111111111001110
1111111111001011
1111111111000100
1111111111000011
1111111111001111
1111111111000111
1111111111001110
1111111111001110
1111111111000100
1111111111001100
1111111111001001
1111111111001100
1111111111001111
1111111111000111
1111111111001111
1111111111000011
1111111111000111
1111111111001011
1111111111000110
1111111111001101
1111111111111111
1111111111001101
1111111111000011
1111111111001011
1111111111001011
1111111111000010
1111111111001010
1111111111000011
1111111111001101
1111111111000011
1111111111111111
1111111111000101
1111111111000011
1111111111000101
1111111111001110
1111111111001111
1111111111000011
1111111111001100
1111111111000100
1111111111001010
1111111111000011
1111111111000011
1111111111111111
1111111111000110
1111111111000110
1111111111001001
1111111111001011
1111111111000110
1111111111000010
1111111111001100
1111111111000011
1111111111000010
1111111111000010
1111111111111111
1111111111000110
1111111111000110
1111111111001101
1111111111000111
1111111111000100
1111111111001101
1111111111001010
1111111111001010
1111111111000110
1111111111001011
1111111111000101
1111111111001110
1111111111001100
1111111111001010
1111111111000101
1111111111001111
1111111111000010
1111111111000100
1111111111001000
1111111111001100
1111111111000010
1111111111001011
1111111111111111
1111111111001001
1111111111001011
1111111111001010
1111111111001001
1111111111001010
1111111111001000
1111111111001100
1111111111001110
1111111111001100
1111111111000101
1111111111001100
1111111111001000
1111111111001110
1111111111001100
1111111111000100
1111111111001100
1111111111000110
1111111111000101
1111111111000010
1111111111001010
1111111111000100
1111111111001111
1111111111000011
1111111111001010
1111111111000111
1111111111000010
1111111111001111
1111111111001011
1111111111001111
1111111111001110
1111111111111111
1111111111001011
1111111111001100
1111111111001000
1111111111000100
1111111111000010
1111111111111111
1111111111000010
1111111111000010
1111111111001101
1111111111111111
1111111111000100
1111111111000100
1111111111000011
1111111111001010
1111111111000101
1111111111000011
1111111111001001
1111111111001010
1111111111001010
1111111111000101
1111111111001000
1111111111001101
1111111111001001
1111111111000110
1111111111000111
1111111111000101
1111111111000011
1111111111001011
1111111111001111
1111111111001001
1111111111000011
1111111111001101
1111111111001010
1111111111001101
1111111111111111
1111111111000100
1111111111000111
1111111111001100
1111111111001000
1111111111001100
1111111111001110
1111111111000011
1111111111111111
1111111111000111
1111111111000100
1111111111001101
1111111111001010
1111111111001000
1111111111001111
1111111111001011
1111111111001001
1111111111001001
1111111111001110
1111111111000010
1111111111000010
1111111111001000
1111111111111111
1111111111000011
1111111111000010
1111111111000010
1111111111001011
1111111111001101
1111111111001000
1111111111111111
1111111111001101
1111111111000011
1111111111001110
1111111111001101
1111111111001110
1111111111001111
1111111111001101
1111111111001010
1111111111001000
1111111111001001
1111111111001011
1111111111000010
1111111111000100
1111111111001101
1111111111000110
1111111111000101
1111111111000011
1111111111001111
1111111111000100
1111111111000010
1111111111000110
1111111111001100
1111111111000111
1111111111001100
1111111111001011
1111111111000101
1111111111000111
1111111111111111
1111111111000101
1111111111001001
1111111111000110
1111111111001111
1111111111000011
1111111111000011
1111111111001111
1111111111000110
1111111111001011
1111111111001001
1111111111001000
1111111111000101
1111111111001001
1111111111000111
1111111111000100
1111111111001100
1111111111001001
1111111111000111
1111111111001111
1111111111001110
1111111111000100
1111111111001110
1111111111001110
1111111111001011
1111111111001101
1111111111000100
1111111111000111
1111111111111111
1111111111001010
1111111111001010
1111111111001001
1111111111001101
1111111111001011
1111111111001010
1111111111001110
1111111111000010
1111111111001011
1111111111001100
1111111111000100
1111111111000101
1111111111001110
1111111111001101
1111111111001001
1111111111111111
1111111111001110
1111111111000101
1111111111000010
1111111111001010
1111111111000101
1111111111000100
1111111111001111
1111111111001010
1111111111000111
1111111111001110
1111111111000110
1111111111001010
1111111111001010
1111111111000011
1111111111001100
1111111111000111
1111111111000101
1111111111001011
1111111111001111
1111111111001101
1111111111000110
1111111111001011
1111111111001100
1111111111000011
1111111111001011
1111111111001100
1111111111111111
1111111111001110
1111111111001110
1111111111111111
1111111111001000
1111111111111111
1111111111001101
1111111111001100
1111111111001101
1111111111000110
1111111111000011
1111111111001011
1111111111000110
1111111111000100
1111111111000110
1111111111001110
1111111111001110
1111111111000110
1111111111000110
1111111111000110
1111111111000110
1111111111001001
1111111111001010
1111111111000010
1111111111111111
1111111111001111
1111111111000100
1111111111001010
1111111111000111
1111111111001001
1111111111000011
1111111111001011
1111111111000100
1111111111000110
1111111111000010
1111111111001101
1111111111001101
1111111111001001
1111111111000011
1111111111111111
1111111111001010
1111111111000101
1111111111000100
1111111111001110
1111111111000011
1111111111001010
1111111111001111
1111111111000110
1111111111000101
1111111111001001
1111111111001101
1111111111001000
1111111111001111
1111111111000110
1111111111000101
1111111111001011
1111111111000110
1111111111001011
1111111111001010
1111111111001010
1111111111000111
1111111111001001
1111111111001101
1111111111001101
1111111111000011
1111111111111111
1111111111001100
1111111111000011
1111111111000100
1111111111000110
1111111111001011
1111111111001000
1111111111000111
1111111111111111
1111111111001101
1111111111000100
1111111111000011
1111111111000111
1111111111001001
1111111111000110
1111111111000111
1111111111111111
1111111111000101
1111111111001100
1111111111001001
1111111111001100
1111111111111111
1111111111000011
1111111111001111
1111111111001101
1111111111000011
1111111111001111
1111111111000010
1111111111001101
1111111111111111
1111111111000110
1111111111001001
1111111111001010
1111111111000111
1111111111001101
1111111111000010
1111111111000110
1111111111001100
1111111111001110
1111111111001111
1111111111001101
1111111111000111
1111111111001100
1111111111000101
1111111111000110
1111111111000100
1111111111000111
1111111111001100
1111111111001110
1111111111001011
1111111111000101
1111111111001111
1111111111000101
1111111111001111
1111111111000111
1111111111001011
1111111111001010
1111111111001110
1111111111001100
1111111111000100
1111111111001111
1111111111001001
1111111111000011
1111111111001110
1111111111001000
1111111111001001
1111111111000110
1111111111111111
1111111111000010
1111111111001011
1111111111001000
1111111111000011
1111111111001110
1111111111000101
1111111111000011
1111111111000010
1111111111000100
1111111111000110
1111111111001101
1111111111000100
1111111111000100
1111111111001110
1111111111000011
1111111111000101
1111111111000100
1111111111000100
1111111111001100
1111111111001101
1111111111000011
1111111111000011
1111111111000111
1111111111001101
1111111111000011
1111111111000011
1111111111000111
1111111111000010
1111111111001110
1111111111001001
1111111111001000
1111111111001100
1111111111001001
1111111111001110
1111111111000010
1111111111001011
1111111111001100
1111111111000111
1111111111001010
1111111111111111
1111111111001011
1111111111001011
1111111111000101
1111111111001010
1111111111001000
1111111111000110
1111111111000100
1111111111111111
1111111111001110
1111111111000010
1111111111000011
1111111111001001
1111111111000011
1111111111001100
1111111111001000
1111111111001001
1111111111001000
1111111111001111
1111111111000110
1111111111001010
1111111111000111
1111111111000010
1111111111001101
1111111111001001
1111111111000100
1111111111001000
1111111111001110
1111111111000100
1111111111111111
1111111111001001
1111111111001000
1111111111001111
1111111111001011
1111111111001000
1111111111000110
1111111111000111
1111111111001111
1111111111001111
1111111111000110
1111111111001000
1111111111001101
1111111111001001
1111111111001000
1111111111001111
1111111111000010
1111111111001000
1111111111000010
1111111111001011
1111111111000101
1111111111001010
1111111111000100
1111111111001011
1111111111000100
1111111111001010
1111111111111111
1111111111001000
1111111111000110
1111111111000101
1111111111001001
1111111111001101
1111111111001000
1111111111001110
1111111111111111
1111111111001011
1111111111000111
1111111111001111
1111111111001011
1111111111001001
1111111111001101
1111111111001000
1111111111001110
1111111111001011
1111111111001111
1111111111001001
1111111111001001
1111111111000101
1111111111001010
1111111111000111
1111111111000101
1111111111001100
1111111111000110
1111111111111111
1111111111001011
1111111111001000
1111111111000010
1111111111000111
1111111111000101
1111111111001101
1111111111000100
1111111111001110
1111111111000010
1111111111000111
1111111111001000
1111111111000100
1111111111000101
1111111111000011
1111111111001001
1111111111000111
1111111111001111
1111111111000110
1111111111001001
1111111111000101
1111111111001001
1111111111000011
1111111111000010
1111111111000111
1111111111000111
1111111111000110
1111111111001011
1111111111001000
1111111111001111
1111111111001110
1111111111001110
1111111111001000
1111111111001000
1111111111000101
1111111111000011
1111111111000100
1111111111111111
1111111111001110
1111111111001101
1111111111111111
1111111111001100
1111111111000011
1111111111000111
1111111111001100
1111111111000011
1111111111000010
1111111111001101
1111111111000101
1111111111000101
1111111111000010
1111111111001111
1111111111001100
1111111111001101
1111111111001011
1111111111000110
1111111111000100
1111111111001100
1111111111000101
1111111111000101
1111111111000101
1111111111001000
1111111111000011
1111111111111111
1111111111000101
1111111111001100
1111111111001101
1111111111000011
1111111111001100
1111111111000010
1111111111001001
1111111111000010
1111111111001001
1111111111111111
1111111111000101
1111111111001010
1111111111000111
1111111111001000
1111111111001010
1111111111111111
1111111111001000
1111111111000110
1111111111001011
1111111111000111
1111111111111111
1111111111001100
1111111111001000
1111111111111111
1111111111000101
1111111111000100
1111111111001101
1111111111001110
1111111111001101
1111111111001010
1111111111001100
1111111111001001
1111111111000100
1111111111000110
1111111111000011
1111111111000110
1111111111001100
1111111111000111
1111111111111111
1111111111001110
1111111111001100
1111111111111111
1111111111001100
1111111111000101
1111111111001010
1111111111001001
1111111111001001
1111111111000111
1111111111000010
1111111111001011
1111111111000010
1111111111001001
1111111111001100
1111111111001100
1111111111001000
1111111111001000
1111111111000100
1111111111000011
1111111111000011
1111111111001001
1111111111001111
1111111111001010
1111111111001010
1111111111001000
1111111111001000
1111111111001110
1111111111001001
1111111111000110
1111111111000010
1111111111001011
1111111111000111
1111111111001100
1111111111001000
1111111111001111
1111111111001100
1111111111000010
1111111111001100
1111111111001010
1111111111111111
1111111111000110
1111111111001101
1111111111000010
1111111111001110
1111111111001101
1111111111000010
1111111111001101
1111111111000101
1111111111001001
1111111111000011
1111111111001010
1111111111000101
1111111111001010
1111111111000100
1111111111000101
1111111111000110
1111111111000011
1111111111000111
1111111111000010
1111111111000101
1111111111000010
1111111111001000
1111111111000010
1111111111001010
1111111111001110
1111111111001011
1111111111001111
1111111111001101
1111111111001101
1111111111000100
1111111111001011
1111111111001101
1111111111000101
1111111111000101
1111111111111111
1111111111000110
1111111111001111
1111111111001100
1111111111000010
1111111111000011
1111111111001001
1111111111000111
1111111111001010
1111111111001110
1111111111000110
1111111111000101
1111111111000100
1111111111001111
1111111111000100
1111111111001001
1111111111000100
1111111111000110
1111111111001010
1111111111000011
1111111111001101
1111111111000100
1111111111001110
1111111111001011
1111111111001110
1111111111001011
1111111111000100
1111111111000101
1111111111001101
1111111111001100
1111111111001101
1111111111000101
1111111111000011
1111111111000111
1111111111001110
1111111111000101
1111111111001010
1111111111001110
1111111111000111
1111111111000101
1111111111001011
1111111111001011
1111111111001110
1111111111001010
1111111111001001
1111111111001111
1111111111000110
1111111111001010
1111111111000010
1111111111000010
1111111111001101
1111111111111111
1111111111001001
1111111111001001
1111111111001101
1111111111001010
1111111111000111
1111111111001001
1111111111001110
1111111111001001
1111111111001101
1111111111000011
1111111111001010
1111111111001000
1111111111000100
1111111111000111
1111111111001010
1111111111111111
1111111111000101
1111111111001001
1111111111000010
1111111111001000
1111111111001010
1111111111001001
1111111111000101
1111111111001000
1111111111001001
1111111111000011
1111111111111111
1111111111001110
1111111111001001
1111111111000101
1111111111111111
1111111111000101
1111111111000101
1111111111001000
1111111111001010
1111111111001001
1111111111000010
1111111111000011
1111111111001000
1111111111000011
1111111111000111
1111111111000011
1111111111000010
1111111111111111
1111111111001101
1111111111001011
1111111111001111
1111111111000100
1111111111001111
1111111111001001
1111111111000100
1111111111001001
1111111111001001
1111111111000101
1111111111001010
1111111111001000
1111111111000011
1111111111001011
1111111111111111
1111111111001101
1111111111111111
1111111111001110
1111111111001000
1111111111000010
1111111111001100
1111111111000010
1111111111001101
1111111111001101
1111111111000101
1111111111001001
1111111111000011
1111111111000100
1111111111001111
1111111111001001
1111111111000010
1111111111001010
1111111111001010
1111111111001001
1111111111000010
1111111111001001
1111111111000110
1111111111000111
1111111111000111
1111111111000101
1111111111000101
1111111111001100
1111111111000111
1111111111001010
1111111111001001
1111111111111111
1111111111000010
1111111111001011
1111111111111111
1111111111001001
1111111111000101
1111111111001111
1111111111001101
1111111111000111
1111111111000101
1111111111001000
1111111111001111
1111111111001010
1111111111000111
1111111111001101
1111111111001001
1111111111000011
1111111111001110
1111111111001010
1111111111001110
1111111111001101
1111111111001111
1111111111001100
1111111111001101
1111111111000101
1111111111111111
1111111111111111
1111111111001100
1111111111111111
1111111111000011
1111111111001010
1111111111000010
1111111111001101
1111111111001010
1111111111000010
1111111111001001
1111111111001101
1111111111001010
1111111111001100
1111111111001111
1111111111000110
1111111111001010
1111111111001011
1111111111111111
1111111111000111
1111111111001000
1111111111001101
1111111111000101
1111111111000110
1111111111000010
1111111111111111
1111111111001100
1111111111111111
1111111111000110
1111111111111111
1111111111001101
1111111111001111
1111111111001100
1111111111001100
1111111111001010
1111111111000111
1111111111001010
1111111111001111
1111111111001110
1111111111000100
1111111111001011
1111111111001100
1111111111001001
1111111111001001
1111111111000111
1111111111001110
1111111111001010
1111111111001100
1111111111001100
1111111111001010
1111111111001000
1111111111001001
1111111111000111
1111111111001000
1111111111111111
1111111111001000
1111111111001111
1111111111000010
1111111111001100
1111111111000101
1111111111000101
1111111111111111
1111111111001101
1111111111001110
1111111111111111
1111111111001111
1111111111001011
1111111111001110
1111111111000110
1111111111001111
1111111111001110
1111111111000101
1111111111000110
1111111111001111
1111111111111111
1111111111001110
1111111111001111
1111111111001000
1111111111001011
1111111111000011
1111111111000111
1111111111001101
1111111111001000
1111111111001001
1111111111001010
1111111111001001
1111111111001101
1111111111001001
1111111111001011
1111111111001101
1111111111001010
1111111111001110
1111111111001100
1111111111001111
1111111111000101
1111111111000101
1111111111001100
1111111111001101
1111111111111111
1111111111001111
1111111111000101
1111111111111111
1111111111001000
1111111111001010
1111111111001010
1111111111111111
1111111111001100
1111111111001001
1111111111001100
1111111111000011
1111111111001010
1111111111001100
1111111111000101
1111111111000101
1111111111000111
1111111111000100
1111111111001011
1111111111000111
1111111111111111
1111111111001110
1111111111000110
1111111111001101
1111111111111111
1111111111000011
1111111111001101
1111111111001110
1111111111000110
1111111111000111
1111111111000100
1111111111001111
1111111111001001
1111111111000101
1111111111001000
1111111111001110
1111111111001011
1111111111000100
1111111111000100
1111111111001010
1111111111000100
1111111111001000
1111111111000100
1111111111000100
1111111111001110
1111111111001001
1111111111001101
1111111111000111
1111111111001111
1111111111000110
1111111111000110
1111111111000111
1111111111000010
1111111111001001
1111111111000110
1111111111000010
1111111111000011
1111111111001110
1111111111001011
1111111111000101
1111111111000011
1111111111000011
1111111111001100
1111111111000110
1111111111000011
1111111111000110
1111111111001111
1111111111000010
1111111111000111
1111111111111111
1111111111000101
1111111111001011
1111111111000111
1111111111001110
1111111111001001
1111111111001001
1111111111000111
1111111111001111
1111111111001001
1111111111001011
1111111111001110
1111111111001111
1111111111001010
1111111111000011
1111111111001100
1111111111000111
1111111111000110
1111111111000010
1111111111001100
1111111111001011
1111111111000110
1111111111000011
1111111111001011
1111111111001011
1111111111000101
1111111111000010
1111111111001101
1111111111001101
1111111111000010
1111111111000010
1111111111001010
1111111111001101
1111111111000110
1111111111000011
1111111111000011
1111111111000011
1111111111000111
1111111111001011
1111111111000111
1111111111111111
1111111111000011
1111111111001110
1111111111001100
1111111111111111
1111111111111111
1111111111000101
1111111111001111
1111111111001111
1111111111000010
1111111111001000
1111111111000100
1111111111001101
1111111111001101
1111111111001011
1111111111001111
1111111111001100
1111111111000101
1111111111000100
1111111111001101
1111111111001001
1111111111000110
1111111111000110
1111111111001111
1111111111000110
1111111111000010
1111111111001101
1111111111000111
1111111111001010
1111111111000110
1111111111001000
1111111111001100
1111111111001011
1111111111000111
1111111111000010
1111111111000110
1111111111001011
1111111111000010
1111111111001100
1111111111000011
1111111111111111
1111111111001111
1111111111001110
1111111111000111
1111111111000100
1111111111001001
1111111111000110
1111111111001101
1111111111001000
1111111111000011
1111111111111111
1111111111001000
1111111111000010
1111111111001110
1111111111001100
1111111111000010
1111111111000010
1111111111001110
1111111111001001
1111111111001010
1111111111000011
1111111111001000
1111111111000011
1111111111001111
1111111111000010
1111111111001111
1111111111001111
1111111111001010
1111111111000111
1111111111000010
1111111111000011
1111111111000011
1111111111001100
1111111111001100
1111111111111111
1111111111001111
1111111111000011
1111111111001000
1111111111000100
1111111111111111
1111111111000010
1111111111001110
1111111111000101
1111111111001000
1111111111001111
1111111111000011
1111111111001110
1111111111000100
1111111111111111
1111111111000010
1111111111001100
1111111111001111
1111111111001000
1111111111001110
1111111111000101
1111111111000110
1111111111000011
1111111111000100
1111111111000101
1111111111001001
1111111111001101
1111111111001111
1111111111000011
1111111111000110
1111111111001011
1111111111001011
1111111111000100
1111111111000111
1111111111001000
1111111111000011
1111111111111111
1111111111001110
1111111111000100
1111111111000100
1111111111001001
1111111111001111
1111111111001010
1111111111001000
1111111111001111
1111111111000010
1111111111000110
1111111111001011
1111111111001001
1111111111001001
1111111111001111
1111111111001000
1111111111000100
1111111111000101
1111111111000111
