0010000000001011
1000000000000001
0000000000000000
0000001001111000
0000001110001100
1000000110100001
0000010111100001
0000000000000000
0000000000000000
1000100101010000
1001001001011101
1001001110101011
1000001110001011
0000101110011101
0000000000000000
0000000000000000
0000000000000000
0011011100000101
0000000000000000
1000100110100101
1000000000000001
0000000000000000
0000001011010101
0000000000000000
1000110000111111
0000000000000000
1001100110100110
0000001001011011
1010110100101000
0000000000000000
0000000000000000
1010010001110000
0000000000000000
1000000000000001
0000000000000000
1000011010111001
1001011101101101
1000000000000001
0000010011000101
0000000000000000
1001100001011110
0000000000000000
0000000000000000
1000101000100011
0000000000000000
0000000000000000
0000000000000000
1000000000000001
0000001101100010
0000011001011000
1000000000000001
0000000000000000
1000000000000001
0000101000001101
0000000000000000
0000001010001100
1000000000000001
1010110011100011
1000000000000001
0000000000000000
1010100010111001
1000000001110100
0000000000000000
0010110111101110
0000000000000000
1000000101110010
0000101101000100
0000011010101010
0000101001100110
0000000100010010
0001000000100100
1000001001100111
1000001000111010
1000000000000001
1000101111010001
0000000000100111
1000001011011111
1000001001110011
1000110000101100
0001010111100000
1000001010001010
1000101111000011
0000001110111101
1000000000000001
1001100011001111
1000101110101011
1000101111101001
0000101110110000
1000100101101101
1000100010101001
0000101011111101
1000110100100001
1000001111001001
1000011010000101
0000000000000000
1000000000000001
0000000001110111
1000010010111100
1000000001111000
0000000000000000
0000000000000000
1000011110100101
0000010011100010
0000000000000000
1000000010001100
0000111001011101
0000000001100111
1000001110000111
1001001011110100
0000010001011100
1000101100111011
0000000000000000
0000000000000000
1000101000110000
1000110010101110
1000001101010001
1000011011010000
0000000000000000
0000110000001010
1000000000000001
1000000000000001
1000010111110101
1000101110001101
0000001010101101
0001000101001111
1000101011011011
0000001110111110
1000000000000001
1001110010011000
1000000000000001
0000000000000000
1000111000011010
1000001000011011
1000100111001100
1000100000001100
1000000000000001
0000000000000000
0000000011000111
0001100110001010
1000001101010100
0000001010011100
0000010010011110
0000000000000000
0000000000000000
0000000000000000
0000001000111101
0000000000000000
0000011100100011
0000000000000000
0000000000000000
1000000110000110
0000000000000000
0001101001111010
0000000000000000
0000011111111110
1000111011000111
0000100110111100
1000000000000001
0000000000000000
1000100000111000
0000000000000000
0000000000000000
0000000000000000
0001010001001001
1000001100010001
0000000000000000
1001000010101010
0000000000000000
1000101001101111
0000000000000000
1000000000000001
0000000001111010
1000000000000001
1000000000000001
1000000000000001
0000000000000000
0001010101110010
0000100000111001
1000000000000001
0000000000000000
0000000000000000
1000010101000011
0000000000000000
0000001011110101
0000000000000000
1000100111000011
0000000000000000
0000000000000000
0001011010110100
1000001001001011
1000000000000001
0010010110000110
1000000000000001
1000010001101101
0001101010100000
0000001011110011
0000010101001110
0000100100110001
1000010101101101
1000101110111010
1000001100010010
1000000000000001
0000000011100100
0000000111111100
0000000101010101
1000111100110010
1000111010001110
0000010001011010
1000100101011001
1000010101100110
0000110110000000
1000000000000001
1001101111010000
0000111110000101
0000010010000111
0000010110001011
1000001111100011
1000010111000000
0000000110010011
1000000101110010
1000100110010101
0000010000111001
0000000000000000
0000000000000000
0000000100010101
1000000011010100
1000011001110000
0000000000000000
1000000000000001
1000001000001011
0000000101101010
0000000000000000
0000001001101011
1000010011100001
0000111001101001
0000000100000010
0001001010011110
0000000010110000
1000011101110101
0000000000000000
1000000000000001
1000011101010000
0001101000000111
0001000100001100
1000101000100010
1000000000000001
1000110000110001
0000000000000000
0000000000000000
1000101000101010
1000111101010101
1000111110001001
0001011001110001
0001011110110111
0000000111011110
1000000000000001
0010001010000100
0000000000000000
0000000000000000
0010100010011001
0000001000001111
0001001011100000
0001001000101010
1000000000000001
0000000000000000
1000100101100011
1000100011111110
0000001100101010
1000001011000111
1000010011011011
0000000000000000
0000000000000000
0000000000000000
1000001100111011
0000000000000000
1000100011110101
1000000000000001
0000000000000000
0000011000011110
0000000000000000
1000110101110011
0000000000000000
1000100001110001
0001010110001110
1000001010001000
0000000000000000
1000000000000001
0000010011101001
0000000000000000
1000000000000001
0000000000000000
1000100000001100
1000000111101010
0000000000000000
0001010110100011
1000000000000001
0000110011011110
0000000000000000
1000000000000001
0001111000010010
1000000000000001
1000000000000001
1000000000000001
1000000000000001
1000001010101000
1000011001001101
0000000000000000
0000000000000000
1000000000000001
0000010111000000
1000000000000001
0000000011011011
1000000000000001
0000010100110011
1000000000000001
0000000000000000
1000111010110010
1000000100010101
0000000000000000
1010011110111100
0000000000000000
1000001010011011
0000001001100111
0000110100101110
0000001001011000
1000011101011101
0000100011100010
0000110100010010
0000010010111100
0000000000000000
1000001010010011
1000010100011010
1000100111110000
0000101001101101
0000101010000100
1000000101110100
0000001111101110
0000000110010011
1000101010101110
1000000000000001
0001101000101000
1000011000001011
1000101100100100
0000101101111000
0000000010110011
1000001001110010
0000000011100010
1000001010001111
0000101000000101
1000100101001101
0000000000000000
1000000000000001
0000110100001001
1000110000010100
1000001011101111
1000000000000001
1000000000000001
1000001101111100
0000011111000101
1000000000000001
1000101111101110
0000001100110001
1000110010000101
0000000010100000
1000111011010011
0000001100011111
0000000110111111
0000000000000000
0000000000000000
0000001100100001
1001001010010110
1001000111000111
1000010001101100
0000000000000000
0000111100010101
1000000000000001
0000000000000000
0000010000011100
0000110111001111
0000110111010010
1000110101010111
1001101110111010
1000000011000000
0000000000000000
1010001101010111
1000000000000001
0000000000000000
0000001001011100
0000000011011110
0010100001101001
1000001000101111
0000000000000000
1000000000000001
0000100011010100
0000001001010111
0000110110011001
1000001001011111
0000000100111110
1000000000000001
1000000000000001
1000000000000001
0000101111010000
0000000000000000
0001100100101010
1000000000000001
1000000000000001
0000001011100001
1000000000000001
1010011100011100
1000000000000001
1000111010111011
0000010010110010
1001101011101010
0000000000000000
0000000000000000
0001100101100011
1000000000000001
1000000000000001
1000000000000001
0000010100110111
1000010100001001
0000000000000000
0011010110110110
0000000000000000
0010000100101101
1000000000000001
0000000000000000
0000001011001000
0000000000000000
0000000000000000
0000000000000000
1000000000000001
1001000111101011
1000000011000001
1000000000000001
0000000000000000
1000000000000001
1000010000011010
0000000000000000
1000101100011101
1000000000000001
0001000110011101
1000000000000001
1000000000000001
1001000111101110
1000000001001000
0000000000000000
0000111001100101
0000000000000000
1000000011010010
0000101101100101
0000011011001000
0000000010100110
0000001100001011
1000001111110110
1000011010001110
0000001011001011
1000000000000001
1000011101001110
1000001100110011
0000011011010001
0000010010100000
1000000110110101
0000100010000100
1000010010001010
1000011100001111
1000100110100100
1000000000000001
1010000001001100
1000111110001111
1000101100000111
0000010100110001
0000011001011101
1000010001111000
0000010101011000
1000000110011001
0000000001110011
1000100001111011
0000000000000000
0000000000000000
0000101000101110
1000010101000111
0000010000100110
1000000000000001
1000000000000001
1000101011110001
0000010001000110
1000000000000001
1000001001100000
1000001111100001
0000110011110010
1000101101110001
0001001100101001
1000000011101000
1000000000100110
0000000000000000
0000000000000000
0000110110000001
0000110100110100
0000011111101110
1000000000100100
0000000000000000
1000010000010110
0000000000000000
1000000000000001
0000001100010010
0000100101001111
1000101111111100
0000100010111110
0000010111110101
0000001110011011
1000000000000001
1001101110101100
1000000000000001
1000000000000001
0001001010001010
1000000110001100
0001100001000010
0000010000101100
0000000000000000
0000000000000000
1001001001101000
1000011000101110
1000010000101101
1010101110110110
0000101010101110
0000000000000000
0000000000000000
0000000000000000
1000100001101011
1000000000000001
0000000000010110
0000000000000000
0000000000000000
0000000101010101
0000000000000000
1001011000111111
0000000000000000
0000000111111001
0001110100011100
0001001010110110
1000000000000001
1000000000000001
1000011010010011
0000000000000000
0000000000000000
0000000000000000
0000000111111010
1001011000010010
0000000000000000
1001001010010110
1000000000000001
0000110010111000
0000000000000000
0000000000000000
0000010010110011
0000000000000000
0000000000000000
0000000000000000
0000000000000000
0010111101001011
0010101101011011
1000000000000001
1000000000000001
0000000000000000
0000001101111000
1000000000000001
0001101111010001
1000000000000001
1001000000010011
1000000000000001
0000000000000000
0000101110111110
1000001011000100
1000000000000001
0000011001100011
1000000000000001
0000011010001001
0000100100010101
0000100011100010
1000001000101010
1000011001000010
1000000011101011
0000101100001010
0000000011110000
0000000000000000
1000011000110101
0000001110001000
1000100101010101
1001000010111111
0000111100111001
0000000001001001
0000001100100111
0000010001001101
0000011010100001
0000000000000000
1000010111011100
0000001011011000
1001010011001010
0000011100101010
1000010000011111
1000010100100011
1000000110110110
1000001110010100
0001011010010101
0000000110101101
1000000000000001
1000000000000001
1000000101100101
1000000011000001
1000100111001111
0000000000000000
1000000000000001
1000001011001111
0000011001110100
0000000000000000
1000010110101010
1000100010001011
1000110001001011
0000010000000010
0001001111111001
0000000001010110
1000100001000001
1000000000000001
1000000000000001
1000001001100011
1001001011001001
1000101101011000
1000001010000101
0000000000000000
1000000100101011
0000000000000000
0000000000000000
0000001001001010
0000011110111010
0000101111000010
0001000100101101
1000101000111111
1000001011100011
1000000000000001
0000000000000111
1000000000000001
1000000000000001
0000001101100110
0000001000011000
1000000011010100
1001111111011000
0000000000000000
0000000000000000
1000000101011010
1000010000111000
1000000111101001
0000011000001010
1001010010010011
0000000000000000
0000000000000000
0000000000000000
1000001010000011
1000000000000001
0000000111101010
1000000000000001
0000000000000000
0000111001100011
0000000000000000
0000001010011000
0000000000000000
1000000000001101
0000001101111111
1000000110000010
1000000000000001
0000000000000000
1000000110111000
0000000000000000
1000000000000001
0000000000000000
1000000111000010
1000000100010100
1000000000000001
1000001001111011
0000000000000000
1000000111011101
0000000000000000
0000000000000000
1000000110001000
0000000000000000
0000000000000000
0000000000000000
1000000000000001
1000000001100000
1000000010011111
0000000000000000
1000000000000001
0000000000000000
0101000110110011
0000000000000000
1000000110111100
1000000000000001
1000010010110001
1000000000000001
0000000000000000
1000001001000011
1010111110000010
0000000000000000
0000111000101111
0000000000000000
1000000000110100
1000010001100111
1000010011111010
1000010000101100
1000001001111010
0000010010011110
0000000000100000
1010010001011111
1000000000000001
1000001111000101
1000000110001001
1000001000111111
1000010000111011
1000000111001101
1000000101001010
1000000011000011
0000000010001011
1000000100011111
1000000000000001
1000000001111111
0000010101100100
1000010000111001
0000000111110000
0000000011100010
0000000100101111
1000001010101101
1000000100011000
1000010001110101
1000000001010001
0000000000000000
0000000000000000
0000110000101110
0000001110001110
1000001001111000
1000000000000001
0000000000000000
0000000101101110
1000011001011100
1000000000000001
1000000100101010
1000011011100111
0000000101011000
1000000110110101
1000000010100111
0001010111111010
1000010101101001
0000000000000000
0000000000000000
1000000100110101
1000010000110010
1000001110000011
1000001001010010
0000000000000000
1000001000101011
1000000000000001
1000000000000001
1000001001100010
0000000101000001
1000001100000111
1000011010010100
1000001100011110
0000100011011011
1000000000000001
0001011000011001
0000000000000000
0000000000000000
1000010001010111
0000001001110101
1001011001000110
0000000101101001
1000000000000001
1000000000000001
0001101001110000
0000101110010101
0000100001101000
0011010001110001
1001000101000111
1000000000000001
1000000000000001
1000000000000001
0000010110111000
0000000000000000
1000000100111100
1000000000000001
1000000000000001
0000011001010000
1000000000000001
0001001000100010
1000000000000001
1000011011011010
1001111110100110
1000111111101101
0000000000000000
0000000000000000
0000011111010101
1000000000000001
1000000000000001
1000000000000001
0000000010110011
0010010101010101
1000000000000001
0001100000001000
0000000000000000
1000111011011000
1000000000000001
1000000000000001
0000001100101010
1000000000000001
1000000000000001
1000000000000001
1000000000000001
1001111101010011
1010001110110101
1000000000000001
0000000000000000
1000000000000001
1000010100010111
0000000000000000
1001010101100011
0000000000000000
0001100010000110
0000000000000000
1000000000000001
1000001001001100
0000010001110100
0000000000000000
1000101001101100
0000000000000000
1000010100110101
0000011111000011
0000011101000000
1000001001100101
1000000100011000
0000100101001101
1000110101011001
0000011100010001
0000000000000000
1000001100110110
1000010010000111
0000010010111000
0001001100001000
1000010011010111
0000011010010100
1000101011011011
1000110110011110
0000000000010010
1000000000000001
0000010110100100
0000010010000110
0000010000111001
0000010011000101
0000000010010111
1000010010000000
0000100110000111
1000000110001110
1000101010100110
1000111101000101
1000000000000001
0000000000000000
0000100110001000
1000100100100010
0000001011101011
1000000000000001
0000000000000000
0000000000111100
0000100001010101
1000000000000001
1000000001011001
0000010111001011
0000100110000111
1001001000001011
1001011111000000
0000011100011010
0000001001010100
0000000000000000
0000000000000000
0000010110011110
0001100011011000
0000011101011001
0000000110011010
1000000000000001
0000100111101100
0000000000000000
0000000000000000
1001001010101100
1000010111110000
1000011000001111
1000100100011111
0000110110011101
0000000011001001
0000000000000000
0000111100100001
1000000000000001
0000000000000000
1000001101100101
0000000111111011
0000011010010000
1000001010100001
0000000000000000
0000000000000000
0000100101011001
0000100000110001
1000111001011010
1000001111001110
1000000110101001
0000000000000000
0000000000000000
0000000000000000
0001000010001111
0000000000000000
1000101011110000
0000000000000000
0000000000000000
0000011001000111
0000000000000000
0000001010101100
0000000000000000
1000001011110011
0000001100100000
1000010111001011
0000000000000000
0000000000000000
1000000110100110
0000000000000000
0000000000000000
0000000000000000
0000000011001001
0000100001110100
0000000000000000
0000100011001001
0000000000000000
0000000010011110
0000000000000000
0000000000000000
0000000010110010
0000000000000000
0000000000000000
0000000000000000
1000000000000001
0000001100011001
0000111100110111
0000000000000000
0000000000000000
0000000000000000
0000001100011001
0000000000000000
0000111100011111
0000000000000000
1000000101011110
0000000000000000
0000000000000000
0000000101001001
0000000101001111
0000000000000000
0000001101100011
1000000000000001
0000010001011101
0000010011010110
1000101111111110
0000100110000100
1000010100111100
0010011000011001
1000000010001011
0000000111000010
1000000000000001
0000010000010010
0000011110010101
0000011110110111
1000001100101001
1000111111001111
0001010011110111
1000001001010000
0000001111100111
0000101111100100
0000000000000000
1001101010000101
1001110101011101
0000100000011010
0000111101111110
0000010011010100
0000111101011100
0000010111000101
0000001110000110
0000000100010000
0000000111011111
1000000000000001
1000000000000001
0000001101111100
0001010000010110
0000010100111010
1000000000000001
1000000000000001
0000111110111101
0000001110101000
1000000000000001
0000111111100000
0001001110001111
1000000100100001
0000010011110000
1010001101101000
0000001000001010
0000010010011001
1000000000000001
1000000000000001
0000001001011110
1000001111001001
0000000000101000
1000011100011001
1000000000000001
0000100001100001
1000000000000001
1000000000000001
0000100000110010
1000101011010010
0000000100010000
0000110000111100
1000100010110001
0000010000100011
1000000000000001
1000011001011110
1000000000000001
1000000000000001
0000001100101110
1000011000101001
0000000001000011
1010100110010011
0000000000000000
0000000000000000
0000001101011011
0000001000010001
0000011000011100
0001001010101110
0001110011100000
0000000000000000
0000000000000000
0000000000000000
1000110001001011
1000000000000001
0000111100100100
1000000000000001
0000000000000000
1010110010110101
0000000000000000
0000100100010100
0000000000000000
0000011011100101
0000011101010101
0000001010011001
1000000000000001
0000000000000000
1000000010000000
0000000000000000
1000000000000001
0000000000000000
0000010000111101
0000001111001010
1000000000000001
1000000010100000
0000000000000000
0000010110111001
0000000000000000
0000000000000000
1000000111111100
0000000000000000
0000000000000000
0000000000000000
0000000000000000
1000001010000000
1000001001001100
1000000000000001
1000000000000001
0000000000000000
0010111100001001
0000000000000000
1000010100110111
1000000000000001
0000001001101001
1000000000000001
0000000000000000
1000000100000100
1001101111011110
1000000000000001
0000101001010011
0000000000000000
0000001001101101
1000010000110000
0000011010110010
1001000101000100
1000001011100100
0000010010101011
1000010110110011
1010001010000101
1000000000000001
0000000111110001
1000001011100100
0000000101100000
0000000010111110
0000001011111100
1000011101001000
0000000001101111
0000001011111000
1000000100000011
1000000000000001
0000101001001001
0000001101011010
0000001000111110
1000000111111010
1000000001001011
0000011001001001
1000001110100011
0000000100000010
1000001111000100
1000001011000101
1000000000000001
1000000000000001
0000000001111000
0000111010001010
1000000000011101
1000000000000001
0000000000000000
0000001101001111
1001010001100011
1000000000000001
0000001010001000
1000011110110111
1000000101000001
0000000110000111
0000000011101100
1000110000110110
1000000101100101
1000000000000001
1000000000000001
0000000100000110
1000010101100100
1000001101111111
1000110010111010
0000000000000000
0000010001111001
1000000000000001
1000000000000001
0000001000000001
0000000110110001
1000001010110110
1000100100111111
1000000101110100
1000011001000100
1000000000000001
0010001110011101
1000000000000001
0000000000000000
0000010100001100
1000000100010100
1001110001110100
0000100100010011
1000000000000001
0000000000000000
1000010101011100
1000010000011100
1000100011000100
1000000111001110
1000000010110000
0000000000000000
0000000000000000
0000000000000000
1000010111011110
0000000000000000
1001010010110011
1000000000000001
0000000000000000
0000010001001011
0000000000000000
0011101111011010
0000000000000000
0000101001000101
1000100011101110
0010000110110001
0000000000000000
1000000000000001
1001010110100001
0000000000000000
0000000000000000
0000000000000000
1000000001111011
1000001001111001
1000000000000001
1001110110011111
1000000000000001
1001111001011100
0000000000000000
1000000000000001
1000000100001111
1000000000000001
1000000000000001
1000000000000001
0000000000000000
0001111010111111
0000000001011010
1000000000000001
0000000000000000
1000000000000001
0000000000100010
1000000000000001
0000100100110110
1000000000000001
1001001101110011
1000000000000001
0000000000000000
0001110000100111
0000000011001010
1000000000000001
1000110010000111
0000000000000000
1000000000011110
1000000100000010
0000100101000101
0000000111011101
1000001010001001
0000011110111001
0000011111101111
0000001100110100
0000000000000000
1000000001101001
0000010011010111
1000101000101111
1000100100110111
0000001111001101
0000011111110010
0000001000001010
0000001011001100
0000101010011100
0000000000000000
0001100100001111
0000111001100101
0000000001000110
0000011011001011
1000100111011001
1000011010110010
0000000010100000
1000011000001010
1000000110110011
1000000010010001
0000000000000000
1000000000000001
0000011000010000
1001000001101001
1000011010001000
1000000000000001
1000000000000001
0000000000111000
0000100001000010
1000000000000001
1000001101100101
0000011110101001
1000011101010111
0000010110100110
1001011101000000
1000000111101011
1000011100000100
0000000000000000
1000000000000001
1000101100001101
1000110100110101
1000011111000000
1000011111011111
1000000000000001
0000011011001111
0000000000000000
0000000000000000
1000101000000100
1000011101010101
0000100100011100
1000001110010011
1000110001011000
0000000101001101
1000000000000001
0000110101110010
0000000000000000
1000000000000001
0000010111001100
1000011001101110
1000000011000010
1000110011001011
0000000000000000
0000000000000000
0000000011001110
1000011001010111
1000010000010000
0001010000110010
0101111011100100
0000000000000000
0000000000000000
0000000000000000
0000001010000011
1000000000000001
0000010010010001
1000000000000001
0000000000000000
1010001010111000
0000000000000000
0000000111100011
0000000000000000
1000000011011111
0000010110100100
1000010000100110
1000000000000001
0000000000000000
1000010011101101
0000000000000000
1000000000000001
0000000000000000
1000000011011111
1000001011010011
1000000000000001
0000001100111001
0000000000000000
1000000011110101
0000000000000000
0000000000000000
0000000101100101
0000000000000000
0000000000000000
0000000000000000
1000000000000001
1000000011010111
1000000010011001
1000000000000001
1000000000000001
0000000000000000
1010000001010001
0000000000000000
1000000110010000
1000000000000001
1000001101101110
1000000000000001
0000000000000000
1000010000111001
0011001000011011
0000000000000000
1000001000011111
0000000000000000
1000000010001111
1000000100011000
1000010010111101
1001011100111110
0000100000011010
0000011100010001
1000001000101111
0001000110110100
1000000000000001
1000001110000111
1000001011001111
1000001010000011
1000010000110010
0000001001110100
1000001101110100
0000001010110110
1000000001001110
0000000110111000
1000000000000001
0000000011100000
0000000101010000
1000001011100101
0000100100100111
1000000000100100
0000000100110110
0000000011000101
1000000110010101
1000010010001000
1000001001000110
1000000000000001
0000000000000000
0000100100000001
0000011001011111
1000001011011001
1000000000000001
0000000000000000
0000010101101100
1000100100001011
1000000000000001
1000000101001101
1000001101010110
1000000110011111
1000000101101101
0000000110010011
1011110011111111
1000001010001010
0000000000000000
0000000000000000
1000000000111110
1000001111000001
1000001110001011
0000001000010001
0000000000000000
1000010011011011
0000000000000000
0000000000000000
1000000101110110
1000000000011110
0000000011001111
1000001010110010
1000010011110110
1001111101001111
1000000000000001
1000101110000111
0000000000000000
0000000000000000
0001010100100010
1000001001011110
1000100011010100
0000010110110101
1000000000000001
1000000000000001
0010011101001111
1000100000100100
1000000001110100
1000000111001110
1000000010100000
1000000000000001
1000000000000001
1000000000000001
0010010111111110
0000000000000000
0000110100010001
1000000000000001
1000000000000001
0000010110100111
1000000000000001
1000010100110011
1000000000000001
1001010110110111
1000110100011010
1001101101110101
0000000000000000
0000000000000000
1000101110010111
1000000000000001
0000000000000000
1000000000000001
0000110100010001
1001010110100000
0000000000000000
0000110110110010
0000000000000000
0000001100011111
1000000000000001
1000000000000001
0000000100111000
1000000000000001
1000000000000001
1000000000000001
1000000000000001
1000011010110101
0001110101001000
0000000000000000
0000000000000000
0000000000000000
0000001000010010
0000000000000000
1001010011010000
0000000000000000
0000100100010110
1000000000000001
1000000000000001
0011101111001001
1000000011011100
1000000000000001
1000110010000111
0000000000000000
0000000111001111
0000000011000011
0001000010101101
1000000010110010
1000000101001000
1000001101100001
0000010111100000
0000001011101110
1000000000000001
1000101110011110
0000000111010110
1000001001010001
0000001101100001
0001101110010110
0000000110010101
1000111101101101
1000011001111010
1000010110000101
1000000000000001
1000100000001000
0000011011111101
1000111011110100
0000101000011100
0000010101010011
1000101001100111
1000001011010100
1000101000010011
1000000100010000
1000101110101000
0000000000000000
0000000000000000
0001000011000010
1000101011101001
0000000111111001
1000000000000001
0000000000000000
1001001010110101
0000100101100011
1000000000000001
1000001111111100
1000011011010000
0000110010110001
1000010111011101
1000001100001000
0000000000000000
1000001101111100
0000000000000000
0000000000000000
0000100101001001
1000100110000110
0000010001100111
1000010101001010
0000000000000000
0000001110011000
0000000000000000
0000000000000000
1000000010010100
1000000101111001
1000101100111110
1000111011000100
1000000011100010
0000001101010011
1000000000000001
1000110010110110
1000000000000001
0000000000000000
1000011110011000
1000000010111100
1000011101000011
0000110111010110
0000000000000000
1000000000000001
0000001100111111
0001001001111011
0000011111101010
0000101000100100
1000011000101110
1000000000000001
1000000000000001
1000000000000001
1000000001011101
0000000000000000
0000110001111001
1000000000000001
1000000000000001
0000110101111111
1000000000000001
0000101100100000
1000000000000001
0000001100110111
1000000110100110
1000000001001000
0000000000000000
0000000000000000
1000010101101001
1000000000000001
1000000000000001
1000000000000001
0000100011110101
1000000100111110
1000000000000001
1000000100101101
0000000000000000
0000010010011000
1000000000000001
0000000000000000
1000000110111000
0000000000000000
0000000000000000
0000000000000000
1000000000000001
1000010011010100
1000010100101101
1000000000000001
0000000000000000
0000000000000000
1000111111100110
0000000000000000
1000101101011101
1000000000000001
0000000101100001
1000000000000001
1000000000000001
1000001000000110
1000000001001001
1000000000000001
0010011000000001
1000000000000001
1000001110111000
1000000001011110
0000011110101101
0000011011001001
1001010011010001
0001001110110001
1000100101000100
0000000101001010
0000000000000000
0000000001011110
1000110001110011
0000000101111001
1000000100110000
1000010111110110
0000001000011100
1000110010101010
1000110100010100
0000001111001101
0000000000000000
1000000010010000
1000001100110000
1000000100111000
0000111000000011
1000101010101100
0000010101110000
0000010100101100
0000000000000011
1000100110010011
1000000000000111
1000000000000001
1000000000000001
0000110010001010
0000111011000000
1000000000101001
0000000000000000
0000000000000000
1000001110110011
0001100101011000
1000000000000001
1000000101111011
0000000110111100
0000110000110000
1000011110111111
0000000111111010
1000001001001001
1000010010100100
1000000000000001
1000000000000001
1000011100010000
1000001011001100
0000001110000111
1000110001001111
1000000000000001
0000101100110110
0000000000000000
1000000000000001
1000001111111110
1000111110100000
1000000111010110
0000000001000000
0000101010010101
1000000001000010
1000000000000001
0001001000110101
1000000000000001
0000000000000000
1001000100110110
0000010011101011
0001000010100101
0000010101001001
0000000000000000
1000000000000001
1001010011101110
0000000101010110
1000000111011110
0000011000010101
0000000110100001
1000000000000001
1000000000000001
1000000000000001
1001001111100010
0000000000000000
1001000011000110
1000000000000001
1000000000000001
0000001111100101
1000000000000001
1001011011001001
1000000000000001
0010001110100010
0000111100100011
0010000010101010
0000000000000000
1000000000000001
0000010010110000
1000000000000001
1000000000000001
1000000000000001
1000111011101011
0001111001100101
1000000000000001
0001000001010110
1000000000000001
0000010101110100
1000000000000001
0000000000000000
1000001100000011
0000000000000000
0000000000000000
0000000000000000
0000000000000000
1000011100000010
1001100000111011
1000000000000001
0000000000000000
1000000000000001
1000001001010000
1000000000000001
0011000101000101
1000000000000001
1000011011110100
1000000000000001
0000000000000000
1010001011010010
0000000100110100
0000000000000000
0001100110110001
0000000000000000
1001000011010111
0000110011111100
0000101111000010
0000001011111100
1000100000100101
0000101011000100
1000001011011011
0000001010011010
1000000000000001
0000011001010111
1001010010000010
1000001111001110
0001100100110100
1000011010010101
1000101111000110
0000100000101111
0000011110001100
0000111011001010
1000000000000001
0000010110000111
1000111100011000
0000010111001010
0000011100110101
0000011110101111
0000001000001011
0000110010101011
0000001101000011
0000111011101111
0000011001011100
0000000000000000
0000000000000000
0000010100010001
1000010101111110
0000001100100001
1000000000000001
0000000000000000
1001001110101000
0000010000010100
0000000000000000
1000101001111110
0000101011001101
0001101000100010
0000000111010011
0000000101011100
1000000111101010
1000000101010011
0000000000000000
0000000000000000
0000001010000000
1000001011000111
1000001010011110
1000001100100110
0000000000000000
1000010011111001
0000000000000000
0000000000000000
0000010001111001
1001011111000111
1001110011111000
0000000110000011
0000011001011111
0000001000001111
0000000000000000
1000100001101011
1000000000000001
0000000000000000
0001010001001111
0000001010010011
0000001101001100
0000010000010001
1000000000000001
0000000000000000
1001011001110000
1000010001000001
1000100000001001
0000001011111111
0000011010101101
0000000000000000
0000000000000000
0000000000000000
0010000100000010
0000000000000000
0000101101111100
1000000000000001
0000000000000000
0000000101110000
0000000000000000
0000111100101011
0000000000000000
1000101000101011
1001100110000101
0000000101100011
0000000000000000
1000000000000001
0011110001110001
0000000000000000
1000000000000001
0000000000000000
0000011001010011
0001100000111101
1000000000000001
1000111101110101
1000000000000001
1001110101100000
0000000000000000
1000000000000001
1000001011101011
1000000000000001
1000000000000001
1000000000000001
1000000000000001
0000110011011101
1001010010100110
1000000000000001
0000000000000000
1000000000000001
0000001011011110
1000000000000001
0010101011101101
1000000000000001
1001100010000010
1000000000000001
0000000000000000
1000001001011100
0000001011001011
0000000000000000
0000000011111010
0000000000000000
0000000011100001
1000000100110101
0001000011000010
0000000010101101
0000000101100110
1000010101011011
0000011011001100
0000000010100011
1000000000000001
1000110110110011
0000001100101101
0000010010010100
1000000001111111
0000000011111100
0000011011001001
0000100100110110
0000001100011000
0000110010000000
1000000000000001
1000100001111101
0001101000000101
1000010000010110
0000011001100110
0000100000101101
1000100100000011
0000011110010101
1000101100110011
1000011111101101
1000011010100011
0000000000000000
0000000000000000
0000100000001000
1001000110001010
0000011001010101
1000000000000001
0000000000000000
1000011011011110
0000010001111100
0000000000000000
0000001111010110
1000011111110111
1000011100010110
0000000110110001
1000110010010011
1000001110101000
1000111000101001
0000000000000000
0000000000000000
1000110100011011
0000000001000111
1000110101110010
1000010111111100
0000000000000000
0000001110000110
0000000000000000
0000000000000000
1001010001011101
0001110001000101
0000000010011101
0000010111100001
1000011100110101
0000001101100010
1000000000000001
0010000100111010
0000000000000000
1000000000000001
1001001111010101
1000001001001110
1001100111011110
0000011101110011
0000000000000000
0000000000000000
0010000011101101
1000001001010110
1001000110100101
1000001110101101
0000000110010011
0000000000000000
0000000000000000
0000000000000000
1001000110011111
1000000000000001
1001011110101010
1000000000000001
0000000000000000
0000010100110000
0000000000000000
0000101010001000
0000000000000000
0000100001111111
0001011011111111
0000000011000100
1000000000000001
0000000000000000
1010000010010100
0000000000000000
0000000000000000
0000000000000000
1000100110010000
1001010010001100
0000000000000000
1000001100110010
0000000000000000
0001011101100010
0000000000000000
0000000000000000
1000001111011010
0000000000000000
0000000000000000
0000000000000000
1000000000000001
0000010011010100
0010010000000110
1000000000000001
1000000000000001
1000000000000001
1000000011110010
0000000000000000
1001001110011010
1000000000000001
0011001100011001
1000000000000001
1000000000000001
0000001100100100
1000000111011010
1000000000000001
0001000110110011
0000000000000000
1000111100000010
0000000100101010
0000110101000001
0000100011010000
0000001110110000
1000000100110100
1000100100101000
0000000011100000
1000000000000001
0000010101000100
0000001001101111
1000100001111011
1001001000001000
1001010100010111
1000001101000001
0000000111101101
1000100100001001
0000010110110010
1000000000000001
0000000110001100
1001000110000110
0000100011111110
0000100101011100
1000110111101000
1001011000111010
1001000011010101
0000000101101001
1000101001100001
0000001000111000
0000000000000000
0000000000000000
0001000011011101
1001000001010011
1001000110110011
1000000000000001
0000000000000000
1000001110110011
0000011010001011
0000000000000000
1000101101000101
0000100001101000
1000100111010011
0000000000101000
0000110110001001
0000001010101010
0000010001110110
0000000000000000
0000000000000000
0001000100100111
0001001111110111
0000000001111100
1000100110011011
0000000000000000
0000010000100011
0000000000000000
0000000000000000
0000011101001001
0000001001011000
0000101100010000
0000110011011101
1000111101110110
0000001011010110
1000000000000001
