1000000000011111
0000000000001010
1000000000011110
0000000010000101
0000000001000011
1000000000111101
0000000000101100
0000000000010011
1000000000011111
1000000000001000
1000000000000110
0000000000001111
1000000000011100
1000000000010101
0000000001001100
1000000000000011
0000000010001011
1000000000001100
0000000000000110
0000000000000010
0000000001111001
0000000000001000
1000000000010110
0000000000000011
1000000000001111
1000000000010110
1000000000011011
0000000001001010
1000000000001111
0000000001010101
1000000000011011
1000000000000010
1000000000011000
1000000000101110
1000000000001110
0000000000101110
1000000000010000
0000000000011101
0000000000100110
1000000000001001
0000000000001111
1000000000010001
1000000000001001
0000000000101001
1000000000000010
1000000000100100
0000000000000101
0000000000000000
1000000000000101
1000000000011101
1000000000001101
0000000000000001
0000000000001110
1000000000011000
0000000000001010
0000000000000010
1000000000100010
0000000000000001
0000000000000001
1000000000001111
1000000000001111
1000000000100111
1000000000000110
0000000001111000
1000000000001110
0000000000010101
0000000000110001
0000000000001010
1000000000101001
0000000000011110
1000000000110010
0000000000000011
1000000000011010
1000000000010110
1000000000011000
0000000001000010
1000000000010100
1000000000010110
0000000000001110
1000000000110001
1000000000100001
0000000000000010
1000000000010000
1000000000101000
1000000000000100
1000000001000100
0000000000000001
0000000010000001
1000000000001100
1000000000010010
0000000000110010
1000000000011110
0000000000110000
1000000000111101
1000000000011101
0000000000111000
1000000000000010
0000000000011000
0000000000001010
1000000000000101
0000000000000011
0000000000001100
0000000000000000
1000000000011111
1000000000010001
0000000001010101
0000000000011010
1000000000011101
1000000000001010
1000000000000101
0000000000010111
0000000000101110
0000000000101111
1000000000001001
0000000000101110
1000000000000111
0000000001000001
1000000000011101
0000000000100000
0000000000001100
0000000000000000
1000000000011011
0000000000110000
0000000000100011
0000000000010010
0000000000001010
0000000000100000
1000000000001100
