0000000001101000
0000000000101001
1000000000110101
1000000001110111
0000000000110010
1000000000110111
0000000001000101
0000000000101101
1000000000111111
0000000001010101
0000000001011101
1000000001101101
1000000000101111
1000000001000101
0000000000111101
1000000000101100
0000000000111001
1000000001000111
1000000000010110
0000000000001001
1000000001100010
1000000000111001
1000000000010011
0000000000100010
1000000000111111
1000000001111001
1000000001000000
1000000001101001
1000000001101100
1000000000011010
1000000001101101
0000000101000100
0000000000110001
1000000000101010
1000000001100111
0000000000100011
1000000010001100
0000000001011010
1000000001001001
1000000001011011
0000000001000010
1000000001000001
0000000101110001
1000000001010000
1000000001001111
0000000000011011
0000000000111001
0000000000111101
0000000001000100
1000000000111011
1000000001100011
0000000000011000
1000000000000101
0000000000010010
0000000000101001
0000000001001001
1000000001100011
0000000000011101
1000000001010111
0000000001000110
1000000010011000
1000000000010111
0000000000101111
0000000000011111
0000000000101011
0000000000011110
1000000000101011
0000000000001010
0000000010100010
0000000010111101
1000000001001000
1000000000001100
1000000001001101
0000000000101100
0000000000100101
0000000000101011
1000000000000111
0000000000010001
0000000010110110
0000000010010000
0000000001110111
0000000001001100
1000000000010111
0000000000001101
1000000010010100
0000000000011000
1000000000100111
1000000000010000
1000000000010111
1000000000110100
0000000000111001
1000000001110000
0000000000011001
1000000000001011
1000000000110111
1000000001010011
0000000001011000
1000000000011111
0000000001100011
0000000000101111
1000000000001011
1000000000010001
0000001001101111
1000000001110110
1000000001010001
1000000000000110
0000000000110000
0000000001000001
0000000101110110
0000000010110100
1000000000101000
0000000010000101
1000000001101011
1000000001000000
1000000001001010
1000000001101000
0000000000011110
1000000001100011
0000000001110001
0000000000001000
0000000000001100
1000000000010011
1000000001101010
1000000001001110
1000000001000000
1000000001000010
1000000010001101
1000000000011001
0000000000100100
0000000001010111
1000000001010011
0000000001110000
0000000001011101
1000000000010011
0000000000001001
1000000000100001
0000000000101111
1000000000101100
0000000000011110
1000000000101101
0000000000101001
0000000000110111
1000000001111001
0000000001100101
0000000001011111
0000001000010100
1000000001001100
1000000010011011
0000000000101011
0000000010011101
1000000001111010
0000000001010111
1000000000000111
1000000001100011
1000000010010101
0000000000100101
0000000000111100
1000000001010101
1000000011001001
1000000000001110
0000000000110001
1000000001010110
0000000000010001
0000000010010010
0000000001000110
1000000001111010
0000000001111000
1000000000110001
1000000000011010
1000000001011000
0000000000000110
0000000000101110
1000000010000100
0000000001011100
1000000001010110
0000000000110110
0000000011001000
1000000000101011
0000000000100010
1000000000110111
0000000000001000
1000000001110001
0000000010100101
0000000000101000
1000000010100110
0000000010010101
0000000000001001
0000000000101000
0000000001101000
1000000001001101
1000000000001110
0000000001100110
1000000001110100
0000000000101100
1000000010110001
1000000000000100
1000000001010100
1000000000101110
0000000010011110
0000000001100000
0000000011011101
1000000000011111
1000000010010011
0000000001001011
1000000001011011
0000000000010100
0000000000000101
0000000000011011
1000000000110100
0000000010000101
0000000001110100
0000000000000000
0000000000100011
0000000010111001
1000000000101110
0000000001010110
0000000000110000
1000000001101001
0000000001101011
1000000001010000
0000000000110001
1000000000000001
0000000001101100
0000000011010011
1000000011000001
1000000010010110
1000000001110001
0000000000101100
0000000000011110
0000000000111010
1000000000011000
0000000000001001
1000000001011010
1000000000010001
1000000000010001
0000000000011110
1000000001111010
1000000001101110
0000000001110001
0000000000101011
1000000010001011
0000000000011101
0000000011000111
1000000001111010
1000000001010110
1000000010010001
0000000000110110
0000000001101000
1000000000001001
1000000001101000
0000000000000101
1000000001001001
1000000001100011
1000000000001011
1000000001010010
0000000001110110
