1000000000001001
0000000001010110
0000000000100010
1000000000101000
0000000000100001
0000000000000111
0000000000010011
0000000000000011
1000000000001111
1000000000001100
0000000000000110
0000000000001010
0000000000011101
1000000000001001
0000000000000111
0000000001011001
0000000000001011
0000000010110100
1000000000001101
1000000000000110
0000000000001011
0000000000000110
0000000000000001
0000000001010011
0000000001010101
0000000000001000
1000000000001101
0000000001010001
0000000000101000
1000000000001111
1000000000000001
0000000000011000
0000000000001011
0000000000000011
0000001010100000
0000000001011001
0000000000100000
0000000000001000
1000000000000101
0000000000000111
0000000000101010
1000000000011001
1000000000011110
0000000000001011
0000000000111010
1000000000101010
0000000000001000
1000000000000011
1000000001001101
1000000000000111
0000000000001110
1000000000001111
0000000000000101
1000000000000100
0000000000100100
1000000000010111
1000000001001010
1000000000001011
0000000000010111
0000000000001110
1000000000011101
1000000001001010
0000000000001101
0000000001011110
