1000000000100100
0000000000110100
0000000000010010
1000000000101001
0000000000001001
1000000000001001
0000000001000101
0000000001001001
0000000000000011
0000000001111100
0000000001000110
1000000001010111
0000000000101000
0000000000011101
0000000010101001
1000000000001000
1000000000101010
1000000000100001
0000000000101011
0000000010010010
0000000001001011
0000000110101001
1000000000011100
1000000000001110
0000000010011100
0000000000010011
0000000001000100
0000000000011010
1000000000110111
0000000000100001
0000000000111010
0000000000110101
0000000000001001
0000000001001101
0000000111100100
0000001101111100
1000000000110101
0000010100100101
0000000001011100
0000000000001000
0000000000010100
0000000000110110
1000000011011010
0000000011010101
0000000000100010
0000000000100011
0000000000000101
0000000001001101
0000000000001101
1000000010000111
0000000000001001
0000000001011011
1000000001000100
0000000000011010
0000000001001111
0000000001110101
0000000010100011
1000000111100100
1000000000010010
0000000001101011
0000000000100010
0000000001011110
1000000000100001
1000000001000100
1000000000001011
1000000000000010
1000000001011111
0000000001111001
0000000000100111
0000000000000100
0000000000111110
0000000010001001
0000000000000111
1000000000101001
0000000001111000
1000000000101110
1000000001000000
1000000000001011
0000000000100001
0000000010001100
0000000000010011
0000000000110100
0000000000101000
0000000010111010
1000000000100000
1000000000111011
0000000000011010
0000000000000001
0000000000001010
1000000000111101
0000000001011101
1000000000000101
0000000000000100
0000000000011001
1000000000000110
0000000001000101
0000000000110101
0000000000001010
0000000001100001
0000000000110100
0000000000001000
0000000001000011
0000000001001100
0000000000111010
1000000000111000
0000000000001010
0000000001001010
0000001100101001
1000000000010111
0000000000110000
0000000000110010
0000000000000010
