0000000000001111
1000000000010101
0000000000001010
0000000000000110
1000000000001001
1000000000000001
1000000000101110
0000000000000100
1000000000001110
1000000000001011
1000000000001011
1000000000001101
0000000000010010
0000000000001010
1000000000001000
0000000000000010
0000000000000001
1000000000011010
0000000000001000
1000000000010000
1000000000001001
1000000000000010
0000000000000101
1000000000001100
0000000000000001
1000000000000100
1000000000000010
0000000000000110
0000000000000101
1000000000001100
1000000000000001
0000000000001110
0000000000000100
0000000000001111
0000000000001000
0000000000001110
1000000000001010
1000000000000100
1000000000001100
1000000000000011
0000000000000000
0000000000000100
1000000000011010
1000000000000001
1000000000010011
0000000000000001
1000000000001101
0000000000010000
1000000000001100
0000000000010000
1000000000001010
0000000000000111
1000000000001001
1000000000001010
0000000000001110
1000000000001001
0000000000000110
1000000000000010
0000000000010110
1000000000001010
1000000000001101
0000000000010000
0000000000000101
0000000000000011
0000000000000101
1000000000001001
0000000000000001
0000000000000111
1000000000000001
0000000000010001
1000000000010010
0000000000001001
0000000000000000
1000000000000010
1000000000000110
0000000000000011
0000000000001000
0000000000000011
0000000000000001
0000000000010101
0000000000000010
1000000000001100
1000000000001110
1000000000001011
1000000000000111
0000000000001010
0000000000010110
1000000000011000
0000000000001010
0000000000001100
0000000000010011
0000000000100110
1000000000000110
0000000000001111
0000000000001000
1000000000000100
0000000000000000
0000000000011001
0000000000000001
0000000000010001
0000000000000011
0000000000001001
1000000000001001
0000000000000111
1000000000011010
0000000000001101
0000000000011111
0000000000100111
1000000000001100
1000000000011001
1000000000001000
0000000000000001
0000000000001101
1000000000000010
1000000000010100
1000000000000110
1000000000010000
1000000000001100
0000000000001101
0000000000000100
0000000000000100
0000000000000011
0000000000100011
0000000000011100
0000000000010111
0000000000100001
0000000001001101
0000000000011101
0000000000010100
1000000000100100
0000000000001000
1000000000000001
0000000000010001
1000000000001001
0000000000010110
1000000000001001
1000000000010111
1000000000000110
1000000000100001
0000000000000011
1000000000001000
0000000000001000
1000000000000011
0000000000000010
1000000000001010
0000000000000010
0000000000001010
0000000000000011
1000000000000010
1000000000000001
1000000000000010
1000000000000011
1000000000000101
1000000000001101
0000000000000101
0000000000010000
1000000000001101
1000000000001011
1000000000001110
0000000000000000
1000000000000110
0000000001110101
1000000000010000
0000000000001110
1000000000000001
1000000000000101
1000000000001011
1000000000000100
1000000000001000
1000000000000111
1000000000001000
0000000000000011
0000000000000000
0000000000011101
1000000000011100
1000000000000100
1000000000001000
0000000000001110
1000000000001101
0000000000001000
1000000000001011
1000000000001111
0000000000011000
0000000000100101
1000000000010100
0000000000000111
1000000000000101
1000000000011110
0000000000001001
1000000000000100
0000000000000101
1000000000001011
1000000000011000
0000000000000100
0000000000000111
0000000000100101
1000000000000100
0000000000000010
0000000000011011
0000000001100111
0000000000100110
0000000000001001
1000000000010001
0000000000100000
0000000000011100
1000000000010111
0000000000001111
0000000000001000
1000000000001101
1000000000001100
0000000000001100
0000000000000000
0000000000001101
0000000000001011
1000000000001000
0000000000001111
1000000000000011
1000000000001000
0000000000000111
1000000000010100
0000000000101110
1000000000001100
0000000010100010
0000000000100010
1000000000001001
0000000000001010
1000000000000010
1000000000000100
1000000000000110
0000000000000011
0000000000100100
0000000000000101
0000000000001011
0000000000001000
1000000000000100
1000000000011000
0000000000000110
0000000000011011
0000000000010000
0000000000111100
1000000000001110
1000000000000100
0000000000001100
1000000000001110
1000000000000010
1000000000000100
0000000000001101
0000000000010110
0000000000000011
1000000000010001
0000000000010111
0000000000011000
1000000000010111
1000000000000100
0000000000010010
0000000000010011
