0000000011000001
1000000000000001
0000000000000000
0000000101001101
1000000000001011
1000000000001010
0000000000110001
0000000000000000
0000000000000000
0000000001001000
1000000000111010
0000000001011011
0000000011101000
0000000110101001
0000000000000000
0000000000000000
0000000000000000
0000000101101001
0000000000000000
0000000011100111
1000000000000001
0000000000000000
1000000001000111
0000000000000000
0000000010100110
0000000000000000
1000000000100111
0000000001000111
0000000000101001
0000000000000000
0000000000000000
0000000010111110
0000000000000000
0000000000000000
0000000000000000
0000000000111000
1000000000001111
1000000000000001
0000000010000101
0000000000000000
1000000000010101
0000000000000000
0000000000000000
0000000000011010
0000000000000000
0000000000000000
0000000000000000
1000000000000001
0000000001100110
1000000000000001
0000000000000000
0000000000000000
0000000000000000
0000000100100010
0000000000000000
0000000010000011
0000000000000000
0000000000001010
0000000000000000
0000000000000000
0000000001101100
1000000001011110
0000000000000000
0000001000101101
