1000000000101111
1000000000101110
1000000000010101
0000000000110010
0000000000110110
0000000001000110
0000000000101000
0000000000101110
0000000011100110
0000000001100000
1000000000011010
1000000000110000
0000000001001001
0000000000000010
0000000000000010
0000000001011011
0000000000111000
0000000000111010
0000000000111010
0000000001010111
0000000000110110
0000000000100101
0000000000111110
0000000000001010
1000000001110010
0000000000111001
0000000000000011
0000000000101101
1000000000010111
0000000000010000
1000000011101011
0000000000000010
0000000000100110
1000000000100000
1000000000011100
0000000000010100
0000000000110100
0000000000111000
0000000010101100
0000000000101101
1000000000101011
1000000000000101
0000000000000010
1000000000111000
0000000000001111
1000000000001010
0000000000011111
1000000000011100
0000000000001001
0000000000000110
0000000000000100
1000000000011010
1000000000011001
0000000001101010
0000000000110100
0000000000100001
0000000010011001
0000000000110111
1000000000110001
1000000000111110
0000000010100100
1000000000011101
0000000000000000
1000000000000010
1000000000101001
1000000001010110
1000000010000001
1000000000001111
1000000000010110
0000000000000111
0000000000110011
0000000000111001
0000000001100000
0000000000000101
0000000001011111
1000000000111101
0000000000001001
1000000000001100
1000000000110100
1000000000000001
0000000010001100
1000000000000101
1000000000010001
0000000000010000
0000000000001110
1000000000011001
0000000001011100
0000000000000101
0000000001000101
0000000001010010
0000000000011001
0000000000101110
0000000001001111
1000000000100111
0000000001101000
0000000000010111
0000000000011011
0000000000111001
0000000000001101
0000000000000011
0000000000001111
1000000000100010
0000000000010010
1000000000110100
0000000000010100
0000000000001110
1000000000111001
0000000000100101
0000000010000111
0000000000100101
0000000000001101
1000000000011100
0000000000011101
0000000000110000
1000000001011110
0000000000010101
0000000001011011
1000000001100011
0000000000100000
0000000000000000
0000000000001111
0000000001000011
0000000011011110
1000000010001101
1000000001001011
0000000010110100
1000000010001001
1000000000001010
