1000000001101011
1000000010010000
1000000000011110
1000000100001000
0000000000011110
1000000001000100
1000000010110110
0000000101000011
1000000001001101
1000000001010101
0000000000011000
1000000000011001
0000000000000110
1000000000110011
0000000000000110
0000000000110000
1000000000100110
1000000000110110
0000000000111101
0000000000100001
1000000000101000
1000000000111100
0000000000000110
0000000000001011
0000000000011000
0000000001001100
0000000000001110
0000000000100100
1000000000000111
1000000010001011
0000000000010110
0000000000111100
0000000000011111
0000000000110101
0000000000110011
0000000000010101
0000000000001101
0000000000000000
0000000111100110
1000000000000111
1000000000100111
1000000001011011
1000000101100011
1000000001011010
0000000000101011
1000000110100101
0000000000101101
0000000000000110
1000000000001111
1000000000100011
0000000001001000
1000000000101001
1000000000001101
0000000010110011
0000000100111010
0000000011100010
0000000010010001
0000000001101101
0000000000001011
0000000000010011
1000000000111010
0000000000011011
0000000100000111
0000000111101001
