1000000010100001
0000000010010001
0000000101100101
0000001001001000
0000000001001101
1000000001000001
0000000100001110
0000000010010100
0000000000011110
0000000010111110
1000000101000001
0000000000011101
0000000110101111
0000000011010111
0000000000100010
0000000100000001
1000000000000111
0000000000001111
1000000000001001
0000000000000100
0000000001111001
0000000010111000
0000000001000001
0000000001000000
0000001000011100
0000000001100000
0000000001101101
0000000001001110
0000000011000011
0000000001001100
0000000101000011
0000000000110001
0000000000000000
0000000001110000
1000000000010100
1000000000101010
1000000000101010
0000000111001110
0000000011011100
0000000001100110
0000000010000100
0000000000011101
1000000000111011
1000000000110100
1000000000010101
0000000001100010
1000000001010001
0000000001110001
0000000010011001
0000000010001001
0000000010111111
0000000001000010
1000000001000100
0000000011010000
0000000011100000
1000000000011100
0000000101100010
1000000001000010
1000000001001011
1000000000011101
0000000100110000
0000000100100110
1000000001011100
0000000000000000
