1000000000000001
0001101011000000
1001101101101001
0011001111101110
0001101100010001
1000000000000001
0000000000000000
1000000000000001
0000000000000000
0010000010000101
1001000010101110
1000000000000001
0000000110011011
1001101001100100
0010100011001111
1000000000000001
0000000000000000
1000000000000001
1000000000000001
1000000000000001
0000000000000000
1000000000000001
1000000000000001
1000000000000001
1000000000000001
1000000000000001
1000000000000001
1000000000000001
1000000000000001
1000000000000001
1000000000000001
1000000000000001
1000000000000001
0000000000000000
1000000000000001
1000000000000001
0000000000000000
1000000000000001
1000000000000001
1000000000000001
1000000000000001
0000000000000000
0000000000000000
0000000000000000
1000000000000001
0000000000000000
0000000000000000
1000000000000001
0000000000000000
0000010100001011
0000001000101110
1001010101010011
0010110110001110
0000000000000000
0000000000000000
1000000000000001
1000000000000001
1001000010011010
0001010001101011
1000000000000001
0000101001000110
1000110100110011
0000111011101100
0000000000000000
1000000000000001
0000001111010111
1000000101000101
1000000111000001
0000001100011111
0000000000000000
1000000000000001
1000000000000001
1000000000000001
0000011110110011
0000000111011100
1000000000000001
1000011111100100
0000001000110010
0000000100010101
1000000000000001
0000000000000000
1001111101011110
0000111110010110
1010000001100110
0001110001110001
0000000000000000
0000000000000000
0000000000000000
0000000000000000
0001101100111011
0001111111110010
0000000000000000
0000100010100100
1000000001101001
1000101110111011
0000000000000000
0000000000000000
0000101110011101
1010010000000011
0000100100100111
0001111111111100
0000000000000000
0000000000000000
1000000000000001
0000000000000000
0000011011000101
0000100110001111
0000000000000000
1000111100000110
0001101010101010
1000100100010111
0000000000000000
1000000000000001
1000000000000001
0000000000000000
0000000000000000
0000000000000000
0000000000000000
1000000000000001
0000000000000000
0000000000000000
0000000000000000
0000000000000000
1000000000000001
0000000000000000
0000000000000000
1000000000000001
0000000000000000
0000000000000000
0000000000000000
0000000000000000
0000000000000000
0000000000000000
1000000000000001
1000000000000001
0000000000000000
0000000000000000
1000000000000001
1000000000000001
1000000000000001
0000000000000000
1000000000000001
1000000000000001
0000000000000000
0000000000000000
1001001001111010
1001000000011111
0001101100110010
1001000110001101
0000000000000000
0000000000000000
0000000000000000
0000000000000000
1010000010001111
0001001001111011
0000000000000000
0000000010111110
0000111001111000
0010101001100011
0000000000000000
1000000000000001
0000010000100010
0000000011111010
0000000101001001
1001111111011100
0000000000000000
0000000000000000
0000000000000000
1000000000000001
1000001101111000
1000110111010010
0000000000000000
0000000000111110
0001100111111101
0000000100101011
1000000000000001
0000000000000000
1001001111111010
1000000001111110
1001100010001111
1000000000011011
0000000000000000
0000000000000000
0000000000000000
1000000000000001
1000001000001110
1000010000101001
0000000000000000
0000010111000001
0000110000010011
0001000101111111
0000000000000000
0000000000000000
0001011110111100
1000100001100000
1000100101110000
1001100000111010
1000000000000001
0000000000000000
0000000000000000
0000000000000000
0000101101010101
1000101110001010
0000000000000000
0000111101110001
0001010101101110
0011010110010001
0000000000000000
0000000000000000
0000001000010000
0000110001010100
0000011000010011
1000001100011101
0000000000000000
0000000000000000
1000000000000001
0000000000000000
0000001010110110
0000010010100101
1000000000000001
0110010011010111
1000001000111000
1000001110010001
1000000000000001
0000000000000000
0000000000000000
0000000000000000
0000000000000000
0000000000000000
0000000000000000
1000000000000001
0000000000000000
0000000000000000
1000000000000001
1000000000000001
0000000000000000
0000000000000000
1000000000000001
1000000000000001
0000000000000000
0000000000000000
0000000000000000
0000000000000000
0000000000000000
0000000000000000
1000000000000001
1000000000000001
1000000000000001
1000000000000001
1000000000000001
1000000000000001
0000000000000000
0000000000000000
1000000000000001
1000000000000001
0000000000000000
1000000000000001
0000000000000000
0000000000000000
0000000000000000
0000000000000000
1000000000000001
1000000000000001
1000000000000001
0000000000000000
1000000000000001
1000000000000001
0000000000000000
0000000000000000
1000000000000001
1000000000000001
0000000000000000
0000000000000000
0011001001000110
0000001000110001
1000100010101110
0000011110011000
1000000000000001
1000000000000001
1000000000000001
1000000000000001
1000011110101100
0100001011101101
0000000000000000
1000000111111010
0000001110100111
0000010101100101
1000000000000001
0000000000000000
0000000000000000
1000000000000001
1000000000000001
0000000000000000
0000000000000000
0000000000000000
1000000000000001
1000000000000001
0000000000000000
0000000000000000
1000000000000001
1000000000000001
0000000000000000
0000000000000000
1000000000000001
0000000000000000
1000000101010010
0001000010001101
1010001110000100
1000000110000001
0000000000000000
1000000000000001
0000000000000000
1000000000000001
1000111001110111
0001100000001100
1000000000000001
0000101110010100
0001010010100010
0000100011101000
0000000000000000
0000000000000000
0000000000000000
0000000000000000
1000000000000001
1000000000000001
0000000000000000
1000000000000001
1000000000000001
1000000000000001
0000000000000000
0000000000000000
1000000000000001
1000000000000001
1000000000000001
0000000000000000
0000000000000000
0000000000000000
0000000000000000
0000000000000000
0000000000000000
0000000000000000
0000000000000000
0000000000000000
0000000000000000
0000000000000000
1000000000000001
1000000000000001
0000000000000000
0000000000000000
1000000000000001
1000000000000001
1000000000000001
0000000000000000
0000010111110011
0000000001001101
0000001100010010
0000110000110111
0000000000000000
0000000000000000
1000000000000001
0000000000000000
0000001000011110
0000010111011111
1000000000000001
1011101001100101
0001001011000101
0000000011011000
0000000000000000
0000000000000000
0000000000000000
0000000000000000
0000000000000000
0000000000000000
0000000000000000
1000000000000001
0000000000000000
1000000000000001
1000000000000001
1000000000000001
0000000000000000
0000000000000000
1000000000000001
1000000000000001
1000000000000001
0000000000000000
0011010011111111
0000000011010111
0001011001001001
0000000001101001
0000000000000000
0000000000000000
0000000000000000
0000000000000000
1010010000000111
1011000010110011
0000000000000000
0000010010000010
0001000101010100
0001100101010001
0000000000000000
1000000000000001
0000000000000000
0000000000000000
0000000000000000
0000000000000000
0000000000000000
0000000000000000
1000000000000001
1000000000000001
1000000000000001
1000000000000001
0000000000000000
0000000000000000
1000000000000001
1000000000000001
1000000000000001
0000000000000000
1000101100100100
0000011111011011
0000110000101110
0000000110101100
0000000000000000
0000000000000000
0000000000000000
0000000000000000
0001101111011100
1010110111101000
1000000000000001
0000001110011011
0000110101110100
1000001011000011
0000000000000000
1000000000000001
1010101011100101
0000111110111000
0001100110001011
0001101110010101
0000000000000000
0000000000000000
1000000000000001
0000000000000000
0001011011101011
0000001101111011
1000000000000001
0000100101000011
1000001011100011
1000011001101010
0000000000000000
0000000000000000
1000101100101011
0000111101001010
0000011110000111
0001001101110010
0000000000000000
0000000000000000
0000000000000000
0000000000000000
0001000100111111
1100100111000110
1000000000000001
0000011000100100
0000101100000101
1001000111001011
0000000000000000
0000000000000000
0000000000000000
1000000000000001
1000000000000001
0000000000000000
0000000000000000
0000000000000000
1000000000000001
0000000000000000
0000000000000000
0000000000000000
1000000000000001
1000000000000001
0000000000000000
0000000000000000
0000000000000000
1000000000000001
1000000000000001
0000000000000000
0000000000000000
1000000000000001
0000000000000000
0000000000000000
1000000000000001
1000000000000001
1000000000000001
0000000000000000
1000000000000001
0000000000000000
0000000000000000
0000000000000000
0000000000000000
0000000000000000
0001001100011010
0000010101101100
1101010111011100
0000110011000000
0000000000000000
0000000000000000
0000000000000000
0000000000000000
0000000100101000
0000101000000100
0000000000000000
0000010111101111
0000010011101111
0000010101100110
0000000000000000
0000000000000000
0000000000000000
0000000000000000
0000000000000000
0000000000000000
0000000000000000
1000000000000001
0000000000000000
1000000000000001
1000000000000001
1000000000000001
1000000000000001
0000000000000000
1000000000000001
1000000000000001
1000000000000001
1000000000000001
1000000000000001
1000000000000001
0000000000000000
1000000000000001
1000000000000001
1000000000000001
1000000000000001
1000000000000001
1000000000000001
0000000000000000
0000000000000000
0000000000000000
0000000000000000
0000000000000000
1000000000000001
0000000000000000
0000000000000000
0000000000000000
0000000000000000
0000000000000000
0000000000000000
1000000000000001
1000000000000001
0000000000000000
1000000000000001
1000000000000001
0000000000000000
0000000000000000
1000000000000001
1000000000000001
1000000000000001
0000000000000000
0000100100100111
0000100010001011
1000011011010010
1000100111010000
0000000000000000
1000000000000001
0000000000000000
1000000000000001
1001011001100110
0000101000111100
0000000000000000
0000001101000100
0001001000111111
1000000110001111
0000000000000000
0000000000000000
0001011011011010
1000101101010000
1010011101100111
1000100101101000
0000000000000000
1000000000000001
0000000000000000
0000000000000000
0001110000110111
1010000100101010
0000000000000000
0000000101111101
0000100011101101
0001110100111010
0000000000000000
1000000000000001
1000000000000001
0000000000000000
1000000000000001
0000000000000000
0000000000000000
1000000000000001
1000000000000001
1000000000000001
1000000000000001
0000000000000000
0000000000000000
0000000000000000
0000000000000000
1000000000000001
1000000000000001
1000000000000001
1010000101000001
1001000101000100
1000110100110111
1000001011110000
0000000000000000
1000000000000001
0000000000000000
0000000000000000
0010001010010001
0010101100110011
0000000000000000
0000000111101110
0000100101101001
0010010001001001
1000000000000001
0000000000000000
1000000000000001
0000000000000000
0000000000000000
1000000000000001
1000000000000001
0000000000000000
1000000000000001
0000000000000000
1000000000000001
0000000000000000
1000000000000001
0000000000000000
0000000000000000
0000000000000000
1000000000000001
0000000000000000
1100001001001100
0000001111010011
0000100001000001
0000100001101000
0000000000000000
0000000000000000
0000000000000000
0000000000000000
0000101100011011
0000100010000010
1000000000000001
0000010110000000
0000101111100110
0000011111011011
0000000000000000
0000000000000000
0000000000000000
0000000000000000
0000000000000000
0000000000000000
0000000000000000
1000000000000001
1000000000000001
0000000000000000
1000000000000001
1000000000000001
0000000000000000
0000000000000000
1000000000000001
1000000000000001
1000000000000001
1000000000000001
1000000000000001
0000000000000000
0000000000000000
0000000000000000
1000000000000001
0000000000000000
1000000000000001
1000000000000001
0000000000000000
0000000000000000
1000000000000001
0000000000000000
0000000000000000
1000000000000001
1000000000000001
0000000000000000
1000110100011110
1000100101111001
1000100001010001
0001011111000110
0000000000000000
0000000000000000
0000000000000000
0000000000000000
1000000101101001
0000000000011001
1000000000000001
1000000010100010
1000100010100100
0000110010010001
1000000000000001
1000000000000001
1000000000000001
0000000000000000
0000000000000000
0000000000000000
1000000000000001
1000000000000001
0000000000000000
0000000000000000
0000000000000000
0000000000000000
1000000000000001
0000000000000000
0000000000000000
1000000000000001
0000000000000000
0000000000000000
1000000000000001
0000000000000000
0000000000000000
1000000000000001
1000000000000001
0000000000000000
1000000000000001
1000000000000001
0000000000000000
0000000000000000
0000000000000000
0000000000000000
0000000000000000
1000000000000001
1000000000000001
1000000000000001
1000000000000001
0000000000000000
0000000000000000
0000000000000000
0000000000000000
0000000000000000
0000000000000000
0000000000000000
0000000000000000
0000000000000000
0000000000000000
0000000000000000
0000000000000000
1000000000000001
0000000000000000
1000000000000001
1000000000000001
0000000000000000
1000000000000001
0000000000000000
1000000000000001
1000000000000001
1000000000000001
0000000000000000
0000000000000000
1000000000000001
1000000000000001
0000000000000000
0000000000000000
1000000000000001
0000000000000000
0000000000000000
0000110011010101
0001111111001000
0001010000000001
0010011010011001
0000000000000000
0000000000000000
0000000000000000
1000000000000001
1001010011001010
1000111010101101
1000000000000001
0000101011001110
0000001110010111
1010010110100001
1000000000000001
0000000000000000
1001110010111110
0001010000011111
0010110100000111
0001100000011000
0000000000000000
0000000000000000
0000000000000000
0000000000000000
1010011011000011
0001110000001010
0000000000000000
0000010101011010
0000010101110010
1001010001110010
0000000000000000
0000000000000000
1000000000000001
0000000000000000
1000000000000001
1000000000000001
1000000000000001
1000000000000001
1000000000000001
0000000000000000
1000000000000001
1000000000000001
1000000000000001
0000000000000000
1000000000000001
1000000000000001
0000000000000000
0000000000000000
0000000000000000
1000000000000001
1000000000000001
0000000000000000
0000000000000000
1000000000000001
1000000000000001
1000000000000001
0000000000000000
0000000000000000
0000000000000000
1000000000000001
0000000000000000
0000000000000000
1000000000000001
0000000000000000
1000000000000001
0000000000000000
0000000000000000
1000000000000001
1000000000000001
0000000000000000
1000000000000001
0000000000000000
1000000000000001
1000000000000001
0000000000000000
0000000000000000
1000000000000001
1000000000000001
0000000000000000
0000000000000000
1000001100111110
0101001000110100
0000001000011100
1000000001100100
1000000000000001
1000000000000001
1000000000000001
0000000000000000
0000000001101000
1000000101001011
1000000000000001
1001111011011010
1001000010111110
0010111000011011
0000000000000000
1000000000000001
1000000000000001
0000000000000000
0000000000000000
1000000000000001
1000000000000001
0000000000000000
0000000000000000
0000000000000000
1000000000000001
0000000000000000
0000000000000000
0000000000000000
0000000000000000
0000000000000000
1000000000000001
1000000000000001
0001100010111101
0001100011000111
1001101011101011
0001111110011100
0000000000000000
0000000000000000
1000000000000001
1000000000000001
0010101010101110
1001110011101001
1000000000000001
0000011011000010
1000010010101111
1010010010011111
1000000000000001
0000000000000000
0000000000000000
1000000000000001
1000000000000001
1000000000000001
0000000000000000
1000000000000001
1000000000000001
1000000000000001
0000000000000000
0000000000000000
1000000000000001
1000000000000001
0000000000000000
0000000000000000
0000000000000000
1000000000000001
1011101101010000
1001011110010101
0001111101011010
1001000100111110
0000000000000000
0000000000000000
0000000000000000
0000000000000000
0000000001001110
1001000011011110
1000000000000001
1000000010000101
0000110000100001
0010101000010101
0000000000000000
0000000000000000
0000000000000000
0000000000000000
0000000000000000
0000000000000000
0000000000000000
0000000000000000
0000000000000000
1000000000000001
0000000000000000
0000000000000000
1000000000000001
1000000000000001
0000000000000000
0000000000000000
0000000000000000
0000000000000000
0000000000000000
0000000000000000
0000000000000000
0000000000000000
1000000000000001
1000000000000001
0000000000000000
1000000000000001
1000000000000001
1000000000000001
1000000000000001
0000000000000000
1000000000000001
1000000000000001
1000000000000001
0000000000000000
0000110101101011
0000001011110000
0000000101010101
0000100111010100
0000000000000000
0000000000000000
0000000000000000
1000000000000001
1101101110101000
0000101101110010
0000000000000000
0000010001011011
0000110111110000
0000101100110110
0000000000000000
1000000000000001
0000101000011111
1010110111101101
0000011101010010
0000100001010010
0000000000000000
1000000000000001
1000000000000001
0000000000000000
0000001111100011
0000100010100000
1000000000000001
0011010111100101
0000111000100000
1000100011010111
0000000000000000
1000000000000001
0000000000000000
0000000000000000
1000000000000001
0000000000000000
0000000000000000
1000000000000001
1000000000000001
0000000000000000
0000000000000000
1000000000000001
0000000000000000
1000000000000001
1000000000000001
0000000000000000
0000000000000000
1000000000000001
0000101111110100
0010101110100010
0001100011100000
1000110000000111
0000000000000000
1000000000000001
1000000000000001
1000000000000001
0001101111111010
0000110101100010
1000000000000001
1000011111000111
0011101100110110
1001010011011001
1000000000000001
