0000000011001111
1000000100101111
0000000010100101
0000000001110111
1000000111100000
1000000010100100
0000000011111111
1000001011000011
1000000100000101
1000000000111000
0000000001110000
1000000010010100
1000000001001111
0000000010010101
1000000010011101
1000000001001000
0000000001111000
1000000010100000
0000000010000001
0000000010100000
0000000100010110
1000011000011000
1000000011010011
0000000001111011
0000000101010010
0000000100001010
1000000001100100
0000000000010001
0000000000010010
0000000010011001
1000000010110000
0000000001000010
1000000001011000
0000000000110000
1000000101010000
1000000110001010
1000000011110111
1000101111111101
1000001001010111
0000000000000001
1000000110011010
0000000010100010
0000000101010101
1000000110000010
0000000110111010
0000000001101111
0000000000110000
1000000000010111
1000000010100011
1000000000001110
1000000101000010
1000000111110101
1000000001111111
0000000000000101
1000000000111100
0000000001100001
0000000000111011
1000000110000011
0000100100011001
0000000001110101
0000000000110111
1000000000011110
0000000001101110
0000000010010001
0000000100001010
0000000000000100
0000000001100010
0000000001000000
0000000011011111
1000001000111110
0000000000100111
1000001101101001
0000000100100110
1000000000011011
1000000000100011
1000001010100010
1000000001110111
0000000101000110
1000000011010100
0000000010000011
0000000010100100
1000000000000101
1000000010000100
0000000001010111
1000000000011000
0000000001000000
1000001011110111
1000000100000000
0000000100010001
0000000001100011
0000000000010010
0000000010000011
0000000011101010
1000000110000010
1000000100001010
1000000010010111
1000000001011110
1000000000010010
1000001010011100
0000000011011100
1000000001010101
0000000011001111
0000000010010110
0000000101000000
0000000001101110
1000001000001010
0000000011110001
1000001100000011
1000000001100110
0000000001111001
1000000000101100
1000000010100000
