1001000101001100
0000001111010011
1000000100011011
0000001011001100
0000011101100010
0000001001010010
0000000110001110
1000001111011101
0000000011011011
1000000000100010
0000001011111011
0001000110011100
1000010001001100
1000101111100010
0000111111110111
1000101001111010
0010010110110001
0000000010010101
1000000111001111
1000010100011110
1000100010000101
0000001001110011
1000010000011010
1000011000001010
1000000110010001
1000011001101101
0000001100011011
0000101010011110
0000000101000111
1000011011000110
0000100100010111
1000011101111110
0000001010000110
0000001101100101
1000001000110100
1000101111011111
0000010111001001
1000000001010111
1000010010010010
1000000111011110
1000000000111000
0001011000011011
0000000001100000
0000110011010110
1000001000011010
1000001000101001
1000101110110000
1000001010001110
0000001101011100
0000000000011110
0000000000111111
0000000001111110
0000000111011011
1000111001101100
1000001000101001
1000001101010110
0000100101110110
1000000010001100
1000010101110110
1000000001010110
0010101011011101
0000000010000110
0000001010010001
0000010001000110
0000001110100001
0000000000111101
1000001111110001
0000001100000101
1000000011011101
0000000001011000
0000000101101011
1000001010111001
1000000100000001
1000000111011110
0000000010001100
0000100101101000
1000010100011110
1000010001101101
0000101110100010
1000010101111100
0000010101100111
1000001001001001
1000010111010100
1000000100011010
1000000110101000
1000000110111100
1000000110000111
0000100001110100
1000000011001010
1000000011101111
0000111011001001
1000001101111110
1000010001011101
1000000001101111
1000000111011010
1000000011000010
0000001011011101
0000001100111101
1000001011001110
0000001000110000
1000000100000000
1000000010010101
0000000101000100
1000001000010001
1000000001001111
1000001001000000
0000000001010100
0001010111001001
1000000100111100
1000100100000011
1000111000000011
0000011000101010
1000000011011000
1000001111011110
0000001001010101
1000010110111111
1000000000001011
0000000100111000
1000000010111011
0000000000001100
0000000100110111
0000011000000010
0000000000111011
1000100111111100
1000001001111001
0001001101101111
0000000010101110
1000011001010011
0000000000100011
0000001101100101
1000001000010110
1000001101111001
0000000111001111
0000011001101010
1000010000001011
0000010011111010
0000000101011101
0000001100110100
1000100110111111
0000000000010101
0000011101100110
0000000100111000
1000000001010110
0000010001010110
0000001100001101
1000001011100011
0000000001111111
0000000001010101
1000000100001001
0000000011111100
1000000000011111
1000010110000101
0000010001111011
0000001000010110
1000011001000011
1000010000000111
0000011100001100
0000101010000000
1000010001001111
0000110101000001
1000100111000101
0000100111111101
0000101100001000
1000010011001101
0000000111000110
1000110100110001
0000010100010101
1000000011001100
1000110110010001
1000010001100010
1000111101110111
0000010010011111
0000010101000111
0000001010111010
0000010110100000
0000001001001001
1000011010111000
0000001110011101
1000001000011110
0000000100011111
1000000000111001
0000101100010100
0000000011000010
0000010101001000
0000101101111000
1000001010000011
1000100011100100
1000000000000100
1000001100011001
1000000110001010
0000000100000010
1000000000000100
0000010011011000
0000001000010011
0001100010111101
1000000001011111
1000000100111100
0000000011000100
0000000001001001
1000110010111011
0000000011001101
1000000001001010
1000010100111100
0000001101010100
1000100001010110
0000010001010001
0000001011010000
0000001111001110
0000000000001000
1000010011100100
0000001011001000
0000100101000010
1000000110111111
0000000000111000
0000001010010001
1000011110100101
0000000111010110
1000011100000100
0000000000010000
1000101011001011
0000000011001100
0000001000000000
0000101011101111
1000010100011010
0000010111100101
0000000100000010
1000000111010000
0000001011100110
1000001101001011
0000000110111000
0000010111100110
0000001001100111
1000101001111111
1000000101101010
1000101001011001
0000001001110101
0000010100001010
1000000101010010
1000000011100011
0000010000110000
1000000000010100
1000010100101111
0000000011100101
0000100101101110
1000001110001111
1000000011001000
0000111001000000
0000011111100100
0000000111001001
1000011001000110
1000000000100000
1000001110011111
0000001110010000
1000001101100010
0000000111010100
1000000000111100
1000001001101101
0000000101101011
0000001001111100
0000001010110010
0000000111001001
0001000001111000
0000001111101110
0000001100101100
1000100011100011
0000000111001001
1001011110100100
0000001010111111
0000011101001101
0000000011001111
0000000101011101
0000001000100001
0000010010011010
1000000010011111
1000000101001111
0000001100011001
1000001010001011
0000000000000100
0000011000101110
0000001101001100
1000010110101101
1000001010011100
1000001110000001
1000000010101011
1000001000110010
0000000010100011
1000000100001001
0000000111101010
0000101111010000
1000001010110100
1000001110110000
1000001000110110
1000001110111011
1000000011110110
1000000000100111
0000111010110110
1000011011100100
1000000011100010
1000000111111010
1000010101110011
0000000111111010
0000000001010000
1000001000101000
1000000111000011
0000000000111001
0000000000010001
1000000001010111
0000000000011010
1000000000001001
0000000000000110
1000000000010001
1000000000001010
0000000000001110
1000000000011001
0000000000100010
0000000100010110
1000000001011011
1000000011000010
0000000100011100
1000000010101000
1000111110010011
0000000011100001
0000010111111010
0000101011101000
0000100000110011
1000000101010101
0000010101001101
1000110001000000
0000000000101011
0000010001111101
0000000110100111
0001000000100111
0000001110111001
1000100001011111
0001010001011111
1000100100100100
1000001001001011
0000000111010001
1000001000010111
0000010100011100
1000000110001011
1000000010110010
0000001011010100
0000000111001010
0000000111101101
1000100010100001
0000000011011010
0000010110001111
0000000000110011
1000100100110100
1000101110111010
0001011001000011
1000000100101110
1000001110110000
0000101001000000
0000011001000010
1000000111111111
1000000001011101
0000010000001101
0000001110100110
1000010001100000
1000010100110011
0000000101101010
1000100010000010
1000010111011000
0000010111011101
0000011001011111
1000001111100011
0000000110010100
0000000001011111
1000001001011010
0000000100010101
1000000001101110
0000100011101110
0000000100001110
0000000100100100
1000100000001110
0000000100011010
1000111011100010
0000000111110001
0000010110010100
0000000011111101
0000000010000010
0000000111011111
0000011010110111
0000000100001001
0000010100001101
0000000100001111
1000000100010100
0000001011101101
1000000100001011
1001010000011010
0000111000011010
0000000010111110
0000100011111110
0000110111101000
0000100001000100
1000011110100011
0000110001111000
1000010111000010
0000001010110010
1000001000100001
0000000000101100
0000000000110110
0000000001101101
0000000001101111
0000000111010001
1000010001110101
1000000101001110
0000010001010010
0000000101111100
1000001010101000
1000001010011111
0000011000000110
1000010001011010
0000101001110111
0010100011010011
1000010000000100
1000010011010100
1000010100110001
1000011001101011
0000000011001000
0000000001011111
0000010110000101
1000010000111001
1000001011101000
1000000010010111
1000001000101000
0000000000011011
0000010000101110
1000010010111100
0000001000011111
0000001101001101
0000011010101001
1000011000000110
1000011101100101
0000001001110111
0000000000000111
1000001001011011
1000001010101011
1000000110010001
0000010011110111
1000000000110011
0000111011011101
1000010011001101
1000010000111001
1000011010100101
1000000111000111
1000000101011101
1000010001000100
0000000010000111
0000011110101011
1000100010100110
1000000000111110
0001001110000111
1000011110110110
0000000010011111
1000010101010011
0000000001111111
1000001011110000
1000001000111001
1000010101111010
0000000011000100
0000010110110001
0000000101011000
1000000101001010
1000001000001110
0000100001011001
1000000011001010
0000000000010010
0000101100010100
0000000111001110
1000000101111101
1000001100001000
1000000001011001
1000001001101010
1000010010010111
1000000101001111
0000000100011011
0000000111110111
0000011011101100
0000010111111010
1000011000100111
1000010000011111
0001010001101100
1000000111100011
1000111001110001
1000010111100110
0000000001111010
0000110001011010
1000001000110011
1000010111101011
1000000100110000
0000100000011011
0000000100101100
1000011011001100
0000011001100010
1000001000100101
1000001001011000
1000001010111101
1000001001001100
1000000000001001
1000000011101001
0000111110100111
1000000001111001
1000000110100000
0000000101000010
1000011000011110
0000001101001010
1000000010001010
1000001011000101
1000001011010011
0000000000000000
1000000000000001
1000000000000001
1000000000000001
1000000000000001
0000000000000000
0000000000000000
1000000000000001
0000000000000000
0000000000000000
0000000000000000
1000000000000001
1000000000000001
0000000000000000
1000000000000001
0000000000000000
1000100001101010
0000010111110110
0000101110110100
0000010111101000
0000011000110110
0000000001001010
0000010110111000
0000000000101000
1000111001100101
0000010101000011
1000001101110101
0000011010000010
1000111000111001
0000001011011001
0000001110000100
0000010111000100
1000001001000011
0000000001000100
1000000110010010
0000000100110100
0000000001011001
1000000001110011
0000000000000110
1000000010110000
1000000001111000
0000000000010011
1000000000110010
0000001111000110
1000000101101101
1000001001000010
0000010000001011
1000000111100001
0000010111010111
1000000101010100
1000000011010000
0000000001000110
1000000111010000
1000000000010000
1000000000110001
0000010001010111
1000010001010111
0000000011010001
1000001010000110
1000000100100011
1000000101010010
0000000011001110
1000000010010000
0000000001100100
0000100001110101
1000000001101101
1000001000011010
0000000011011110
1000000011010000
0000000110001000
1000001111110011
0000010111111010
0000000000101010
1000000111001001
0000000010010110
0000011011100011
1000000010100010
1000010101010011
0000011000100001
1000010111101110
0000111110100010
1000000110110101
0000001101011010
1000001011101110
1000001011100111
1000000010110000
1000001011000000
1001011110000001
0000100000011110
0000000010111101
0000010001111011
0000000011010011
0000001111110111
0000001100100011
1000001101100100
0000010001000001
1000010000110111
0000010000001110
1000000111000000
1000001110110010
0000010101100001
1000000111101110
1000000111110010
0000100111010100
0000000101001011
0000010011100000
1000000000101001
0000010011110010
0000101100011011
1000010000111000
1000011011000100
0000001100000010
0000001101001111
0000000010111000
1000000100111010
0000001011011001
1000001000000100
0000010001010111
0000010010001001
1000000100000000
0000011100000010
0000000000010001
1000101110011001
0000001110011000
0000110110010010
1000000110110010
0000010000000010
1000000010111011
0000000111011101
0000000101010111
0000011011001110
0000000110101110
0000011001011011
0001001100100000
1000000010110010
0000001100001011
1000001000110011
0000010010010110
1001001000011110
0000000110100010
1000010101110110
0000001110010000
0000001111110011
0000000111001010
0000001010011111
0000001100110010
1000001010011001
0000111011001110
0000110000101001
1000000011100101
1000101011101111
0000000101110010
1000000010101011
1000101101000001
1000000100000101
0000000110101100
1000000011101000
0000010001100001
1000010000011011
1000010000011111
1000000100100010
1000000000100011
1000000110111000
1000110010101010
1000101110110111
0000000000000011
0001000011000000
0000001001011011
0000000101000001
0000111011001101
0000000000010110
1000001000001000
1000001010010111
1000011110011101
0000011011101100
0000000000101111
1000010110000001
0000000110000110
1000100001100000
0000010011111001
0000000000010100
1000001000111101
1000000110110001
1000001011111101
1000001001110101
1000000101001010
1000000000111010
0001100000110010
1000011101001101
1000111010010101
0001100001111001
1000110010110001
1000001001011000
0000000001000101
1000000110100000
0000000100111101
0000000001011100
1000000001110110
0000000000000110
1000000010111000
1000000001111100
0000000000010010
1000000000110010
0000001111101000
1000000101111011
1000001001010111
0000010000110001
1000000111110010
0001000011111111
1000010011101011
0000000000000010
1000000101011001
1000001100100111
0000000111100110
0000000110001011
1000011111110000
0000000011010100
1000000000010111
0000000111010000
1000010110100101
1000000010101000
0000101110101111
1000011100101100
0000011111101010
0000100000111101
1000010010110101
1000001111010011
0000000000010101
1000001001011000
0000000010010010
1000000010100101
0000011000001001
0000000001011001
0000001111011001
1000000001010000
1000100100111011
1000000101001001
0000110110001101
1000100111100100
0000110111010101
0000000010101111
0000001011011101
1000100101011010
1000000010011000
1000010111100101
0000000000111101
0000000001101101
0000011001111000
0001010101111100
1000000110111100
0000101011110000
1000000001000111
1000000010100100
1000001001100011
0000000010001101
1000001101001001
1000110011011111
0000000001111011
0000001011100101
0000000100010010
0000001000000000
0000000111010011
0000000110011111
1000001111001101
0000000111000001
0000000011100001
0001010110010000
1000000101111010
1000010100100011
0000001001110001
1000000100110011
0000010000011001
0000011010110001
0000000100111000
1000010101100011
0000001101011100
1000000100111110
0000000101000011
0000001000011001
1000011000101010
1000000011000100
1000001010011010
0000000110010010
0000101101100011
1000011000111100
1000010010101110
0000110011010000
1000010101001011
1000010110011100
1000000000110111
1000001111101010
1000001110011011
1000001001111111
1000000000001111
1000000110100111
0001001010010110
0000011001100100
1000001001100111
0000000101101010
1000010010011000
0000010111110110
1000000111000111
1000001010111000
1000001110000110
0010001100000010
1000100001100011
1000001011011100
1000010111001011
1000001110011010
0000001010000010
0000000000011001
1000011110100101
0000000100101111
0000000011010011
0000001010111001
1000100011101101
0000001000001010
0000100100101010
1000101011110001
0000110001010110
0000001010111011
1000001101010110
0000011010110000
0000000110101011
0000001010001110
1000001001010000
1000001011101111
0000010101100001
1000010101001110
0000000001001010
0000001110010110
1000000110111101
1000001110101111
1000000001111101
1000001011000001
1000000101010110
1001001010110001
1000001110110011
0000010110111000
0000001110100010
0000011000011111
0000000000010000
0000000101011100
1000110001010000
0000011000101001
0000011011110100
0000010100010000
1000011101000100
0000011000110111
0001001101001001
1000101110111011
0001011000001000
0000000011111011
1000001101011101
0000001001101001
0000001000111000
0000000000111011
0000000101000001
1000000011001110
1000001110011011
0000000000000000
1000000100110100
1000000010011100
1000111101100001
1000001110100110
0000000100111100
0001101001101110
1000100001101110
1000001000100110
0000000010100000
0000101101001010
1000000110111111
0000111011000011
1000000110110011
1000010000011011
0000001010110000
1000010000111010
0000011101111001
1000010111011101
0000000110110010
1000011001001110
1000001111010010
0000010100010110
1000001111001111
0000010011001111
1000001000010001
0000000000111010
0001000000101101
1000001001010101
1000000010101010
0000010010100111
1000011011011011
0000000100010001
1000101101000110
1000000001100001
1000100010110010
1000000011111101
1000001100110110
0000100010010011
0000000111100101
0000100100100001
1000000110100111
1000000110110010
0000001001100100
1000010000110010
0000000110110100
0000000111010111
0000010111001000
1000011010100110
1000000011000110
1000010010110111
1000001000100101
1000001011010011
0000000000110110
0000000101001100
1000001100001010
0000110001101110
0000001010010110
1000010101111111
0000001001011000
1000011101001100
0000000000101111
1000000110010011
0000101000010011
1000010010011001
1000000011101000
1000001100101111
0000111000110110
1000001101010001
1000100100110111
0001000010110110
1000101100111001
0000101000100111
0000000010101101
1000000111011010
1000000101010101
1000001010101000
0000000111010011
1000001101101011
0000001111010011
0000000000000100
1000000100100101
0000000011001101
0000011100001110
1000000010100111
1000010111110101
0000100001001000
1000010101110000
1000010001011001
1000000001100010
0000000101100001
1000000010100011
0000000111010101
1001001001110011
0000000010100111
0000010100101011
1000111000010101
0000000010000110
0010000110100000
0000000001000100
0000001010000100
1000000100010100
0000000000100011
1000000110000001
1000000100001010
0000000110011101
1000010110111010
0000000000110000
1000000110010111
0010010011100000
1000000101110110
0000001100110101
0000111001001000
1000000110110110
1001100100001001
0000000001010101
1000001100001011
1000000001010000
1000000100000001
0000000011110011
1000100101110111
1000010100000101
1000010010111010
1000001100101111
1000001001111111
1000001001111010
1000000010001101
1000001011111010
1000001011011001
0000000011011000
1000000011111010
1000111111001011
1000001110101011
0010000011101001
1000111111010001
0001111010011011
0000000000001111
1000000000000001
1000000000000001
0000000000000001
1000000000000111
1000000000000001
0000000000000100
0000000000000101
1000000000010010
1000000000000010
1000000000001011
0000000000000001
1000000000000010
0000000000000110
1000000000000001
0000000000000110
