0000000011101011
0000010101110011
1000000001101110
0000001110100110
0000001000011100
1000011000001100
0000000001111110
1000001100110010
1000001111100011
1000001001110100
1000000100000100
0000000001011100
1000000100010101
0000001001100101
0000001010010011
0000000100101100
0000000101000111
0000001000111001
0000001010110110
0000001001001111
1000000001000010
0000001110010110
0000000010001011
1000001110101101
0000000010011011
1000001101100000
1000001000000101
0000000110011011
0000000000010101
0000000010011111
0000000010101001
1000001000101010
0000000010001101
0000000001111101
1000000110011101
0000000010001000
0000000111001100
1000000000001100
1000000100111111
0000000000001010
1000001011110000
1000000110001101
0000000000100101
1000000101001001
0000000011111111
1000011111111000
1000000110111110
0000000110110010
1000010010110100
0000001100111111
0000001110101001
1000001101101100
0000001011111101
0000001100111001
0000000011001000
0000001001110011
1000000001111100
0000000010000110
0000000001010110
1000001100001111
0000000001010111
1000000011111110
1000001000110101
1000000001000110
1000000110000110
0000000011111100
0000000100000000
1000000110001011
1000000001000101
0000000011011000
1000000101110100
0000001101101010
1001011100100110
1001000001001010
0000001100011001
1001011001100000
0000010100001001
0001100100010000
1000011001010110
0001001010101110
0001001010001100
0000001100111001
0000000100101000
1000000000100011
0000000110100011
1000000110101110
1000000011110010
0000000001011101
1000000101011001
1000000000010100
1000101101100101
1001010110000011
0000000001010001
1001010100110100
0000011111110011
0001110001101111
1000000010011110
0001001001100111
1000000111000101
0000000001001111
0000001110111100
1000000001011111
0000000110011110
0000000001100100
1000001000111101
0000000110010010
1000000110000110
1000000111010110
0000011000110101
0000000001011001
1000000001000000
0000001100001101
1000000111110110
1000001010100100
0000000101100100
1000001111011011
1000001100000100
0000000101011001
0000000100111001
1000000100010110
0000001100100100
1000000010010110
1000010001100111
1000000011010111
1000001000100001
1000000000001001
0000001010011101
0000000010111000
1000000000011100
0000000010000011
1000000101110100
1000000011100011
0000000001111111
1000001000110000
0000000100011101
1000000001011001
0000000101101100
0000000011101101
0000001111110101
0000001000110111
1000000101111010
1000000000000011
1000000111100000
1000000101011101
0000000110111111
1000111110001111
0000101111001101
0000010100101100
1001101101000001
0001011000011101
0000000011010110
1001000101001001
0000110011001010
1000000010100010
1000000101100001
1000000101100111
0000000011011000
1000000010010101
0000001110011101
0000000010001001
0000000001100010
0000001110110101
1000000001011010
0000000010010111
1000001000011011
0000001000111100
0000001000110111
1000000000011000
1000000000011001
0000000110101101
1000000001011000
1000000010110010
1000010011011101
0000000100111011
0000000110101010
1000101101101001
0000001101101010
0000000100101111
1000011100000010
0000001010100010
1000000000010110
1000000101001110
0000001101000001
0000000010000011
0000001101001010
0000000110010111
1000000010001110
1000000001110010
1000001110001011
1000000000000011
1000000101010001
0000000000100101
0000000000001000
0000000011011100
1000000000000011
0000000000101101
0000000001011000
1000000011011010
1000000000000110
1000001000111111
0000010010111000
0000000111010101
1000010011010101
0000100110000001
0000000001010110
1000010000001011
0000001011010001
1000001110001110
1000000100011011
1000000110111000
0000000010101011
1000000101111010
0000010010011011
1000000111111001
0000001001001010
0000000011110010
0000000010011001
0000001101010100
1000001000111110
1000001001001110
0000011001111111
1000011110010111
0000000000111000
0000010100001101
1000010100001111
0000000010110000
1000010000001111
0000000001101100
0000001011110011
1000100000000001
0000001101000010
0000001001000111
1000010111101010
0000000011000111
0000000001011001
1000000000111101
0000000011011000
1000000011110011
1000000010011010
1000000101100000
0000000100101100
0000000010000100
0000000000101001
1000000000011010
1000100111110000
0000001111111001
0000001001011101
1000110001110010
0001000010110011
1000001000100100
1000100101011000
0000011101111111
1000000001010111
0000000110011100
0000000011011110
1000000010011011
1000001000000100
0000000110010100
1000000000100011
1000000101111011
0000001001001110
0000000101100100
0000100001010000
1000010111011001
1000000100001001
0000101100110001
1000111010010110
1000000001011111
0000100010111111
1000100101100101
1000000011011101
1000110111101011
0000010011100101
0000001111100111
1001000001010011
0001100101001011
1000001000101111
1000111011011001
0000110010000010
0000000001010000
0000011111011101
1000010110011001
0000000000010010
0000110000010011
1000111001110000
1000000010100101
0000110000111000
1000101100100010
1000011111010100
1000000101000111
0000001111111001
0000010100010000
0000110000110010
1000001100000111
0000010000001011
1000011100110101
1000100000111010
1000001010010001
1000010110111110
1000010011000001
1000011101101101
1000011001100000
1000000011010101
1000000000111111
0000010010100001
0000011111101101
1000010001001110
0000001110110011
0000001110000111
0000101111010101
0000111000111110
1000010001100000
1000001000010111
1000110101000011
1000110010111111
0000000010010001
0000000001101111
0000000101011000
1000000000010011
0000001011000001
1000000011000110
0000000111101111
1000001000100000
1000010010000010
1000000111000001
0000010100101100
0000001000001000
0000001000010011
0000010110000101
1000001010011000
0000000001001010
1000000111001101
1000001101110010
0000001101111000
0000010000110011
0000001110010000
0000001111000010
0000001010010110
1000000101110111
1000000101101011
1000001101011001
1000010001010111
1000000010110011
1000000111100001
0000011001111011
1000001100111101
0000000011110011
0000000001111111
0000000010011001
0000010101100111
1000000010001101
1000010011000000
1000000000101110
0000010001001101
0000010000111111
0000011111110011
1000010011100000
0000000000000001
1000100110011000
1000100011101011
0000001011001001
0000000000000101
0000000000000001
1000001101011001
1000011101001011
1000001011101101
1000000111101100
0000000010000000
0000001011101101
1000000010100000
0000001001110000
0000000011010011
0000010101010111
1000000010000010
1000000001000110
0000001001000000
1000001101000111
1000000001010001
0000001110010010
1000000100011111
1000000100110000
1000010001000110
1000001110101101
0000000000011100
0000000110111000
0000010110101001
0000000100101001
1000110111000011
1000101111100001
1000001001110101
1000010011110000
0000011101111101
0000011010101001
0000101010111110
0000111011001011
0000100010001001
1000000001000101
1000001001111011
1000000011110000
1000011100101010
1000001010101111
0000001001111101
0000001010010000
0000010110110010
0000011001101000
1000000001111010
0000000111010000
1000001011001011
0000010100001001
1000000111000010
1000011110000011
1000000010010001
1000010111101001
1000000110010011
0000100111110110
0000101110010011
0000000110111110
0000010111001010
1000001011010110
1000011111101111
1000100011000011
1000111010110010
1000010010110001
1000001110101000
1000001110010000
0000001100001011
1000100100101110
0000011010101011
0000100101010111
0000001000110111
0000010111011001
0000000010001010
0000000001100100
0000001000100011
1000000000010000
1000000011000101
1000000100011011
1000000100001000
1000000000001100
1000000010011101
1000000001001011
0000000110011111
0000001010000010
0000000011101110
1000000001110010
0000000001011001
1000000011010001
1000000001000110
0000000000110000
1000000000101000
1000000000000011
1000000100000111
1000000011001110
1000000000001110
1000000010011011
1000000010000110
0000001001101011
0000001010000111
0000000011111110
0000000000000011
0000000001100101
0000000000111000
1000000000010111
1000000000111000
1000000000000001
0000000010101110
0000000001011010
0000000010011011
1000000001001110
1000000000100111
0000000000101000
1000000011001110
1000000011001010
0000000000010111
0000000010011000
0000000000011110
1000000000001010
0000100100101101
0001010011001001
0000101010100000
1000011011100100
1000111010011110
1000010110100111
1000010010010110
1000010001100010
1000010001000001
1000000001000110
1000000001100111
1000000010011110
1000000000001101
1000000100001100
1000000011001010
0000000010101001
0000000111010100
0000000011101100
1000000000010010
0000000011111111
0000001001101001
1000000011110110
1000001001001110
1000000010111101
0000000101010001
0000000101010001
0000000101110111
0000110001011001
0001010011011011
0000111010001100
1000001001001111
0000010000000110
0000001101111011
1001000010000001
1001010101000100
1001000001010100
1000000011111011
1000000011101011
1000000010111011
1000000011011111
1000000101001000
1000000100100110
0000000001000011
0000000001110010
0000000100001111
1000000101100000
1000101101000100
1000010111100000
0000100111111010
0010001010001001
0001001001010011
1000101001111100
1001011000111100
1000101110000010
1000000000011110
1000000001011100
1000000010001000
1000000111001011
1000001001001111
1000000111000110
0000000101011111
1000000001010101
1000000000101111
1000001110011111
1000010100101011
1000001001001110
1000000010110001
1000001010011111
1000000110101000
0000010111011010
0000011100001110
0000001111000001
1000000011001110
1000000011000001
1000000011101001
1000000101010101
0000000001011011
1000000001010101
0000000001101000
0000000101001110
1000000000101000
0000000001001101
0000000001110101
0000000000101110
1000000000001010
1000000010100111
1000000001001101
0000000110001111
1000000000010111
0000000001001110
1000000000010100
0000000000101101
1000000010110110
1000000010110001
0000000001011110
1000000100001000
0000000001011011
0000000101011100
1000000011101001
1000001011000100
0000111101001001
0000000000101110
0000101100100011
1000001111001110
1000111101100001
1000000010001111
1000110010010000
0000100000000101
1000001011000101
0000100101011101
1000000111101011
0000010100111011
1000011011111010
1000100110001110
1000011011000101
1000100101110100
0000011011000110
1000011000110000
1000011110001011
0000010100001101
1000010010111010
0000101011110101
0000011000011110
0000010100101110
0000001010100101
1000010101101110
0000010010000010
1000000011110011
1000000011100000
0000000101101010
1000100100101011
1000000101010111
1000000001111001
1000000111101010
0000000111111001
0000000010001111
0000000111110100
0000001001110100
1000010001001001
0000001101011101
1000000110011111
0000010010001010
0000010000010111
1000010100010010
1000010001110100
1000000110110000
0000000111001100
1000001100111010
0000001100000110
0000000101101111
0000001110010111
0000001011011000
0000000000101010
1000000001101011
0000100010010110
1000010111111010
0000001110000101
1000010100001000
1000100101001111
1000000011011001
1000001010101001
0000011101011010
1000011010011000
0000101110010000
1000001010000111
0000011010111101
0000000001010001
1000101100010011
1000001011000101
1000100001000100
0000011111011010
0000001100010100
0000000010110110
1000000000111110
1000000111111100
1000000001000111
1000001000101000
0000000011100001
0000000011111100
1000000101111101
1000001001011001
0000001100110111
0000000011010001
0000001100111110
1000010000010000
1000000101000100
0000000100000101
1000011101001011
0000001101101001
0000000001111111
0000001110001001
1000000000111110
0000001000011001
1000000010101001
1000001111110011
1000000110001110
1000000111001010
0000010000010100
0000000110001110
1000001101000110
1000010000000110
1000010000110000
1000100001111101
0000001110110001
1000001101011001
0000010101011010
0000100010101010
0000000111011011
0000100000000010
1000001000001000
0000011110010111
1000001011111111
1000010000010110
1000010000011011
1000010100100001
0000101000011110
1000100010101100
0000001011010000
0000011011000011
0000100111111111
0000101000011111
1000101001011100
1000000010011011
1000100011011110
1000001000111001
1000011100001110
0000101010100010
0000010000101100
0000001100011100
0000100010111001
1000011000000101
0000010011101000
1000100011101000
1000010100111000
0000000111000011
0000001000011010
1000010010010111
0000001000010111
1000011110111111
1000001010010000
1000010011111001
1000000101000110
0000011110000110
0000000101001000
1000000011001000
0000000000101101
1000000000100000
1000000011000101
0000000100011110
0000000000101110
1000000101100111
1000001001100110
0000000010100001
1000011010001010
0000001111010110
1000011110010111
0000111000001111
0000000001010110
0000001100110100
0000100101000001
1000100011111101
0000000110001101
0000001110001101
1000001111100101
0000010111110000
1000100110111011
0000001101101101
1000010100001100
1000001010100000
0000011101101011
1000001011110101
0000100010011000
0000000101010100
0000000011000011
0000001111010111
1000010000100101
0000001110010100
1000100011100010
0000001010110001
0000000101010101
1000100101100001
0000001100010100
0000000100010111
1000101110111110
0000100111001010
1000000011101011
1000000100111001
0000100100011010
0000001100011000
1000000000110000
1000000011101101
0000000100001010
1000001101000100
1000000010100010
1000000001011000
0000000001010101
0000000011000100
1000001010000010
0000011111101100
1000000010001011
1000000001000001
0000101001010010
1000100010110000
0000001001101010
0000000100111101
1000100000100010
1000000011010110
1000000011111100
0000000010010001
1000000101111111
1000000000101010
0000000001001111
1000000110101001
1000000110101101
1000000100111011
0000001010001101
0000000011101111
1000000100110110
0000000111100101
1000001101000001
1000000110001010
0000000001011111
1000000110101101
0000000001000111
0000000011000011
1000011011100110
0000001001001011
1000001001011000
1000001000111011
0000010101100000
1000000110100001
0000011101011111
1000000111011101
0000001110110011
0000000100100101
1000001010010111
0000010000101001
1000011100100100
0000000001010101
1000000111100001
1000001000111110
0000001101111111
1000000110010011
0000110001010101
1000011011111010
0000011011001101
0000101101111000
1000111001101100
0000011111001001
1000110101001011
1000011101011111
1000001000010001
1000001100100011
0000001100101111
1000010011110000
0000011110101110
1000000000011110
0000001110010100
0000000001101111
1000010111100100
0000000010011001
1000010001110111
0000000001110100
1000010011111100
1000100100010110
0000101111001111
1000010010110000
0000110000000111
1000001010000110
1000000001001101
1000111101000011
0000001101010100
1000001110010111
1000010101100001
0000110000111011
1000101010100011
0000110010011111
0000000011000001
1000001010100001
0000010110100101
1000000011101110
0000000111011111
0000101000001010
1000110001011111
0000011001001100
1000100101011011
0000001100011001
1000000111100011
0000000000011100
1000000111100110
1000010000010010
1000100111010011
1000001110000111
0000011011111001
0000001001000111
0000010011000101
0000000011100110
0000000100100100
0000000000010110
1000000010001001
0000000100110111
0000001001011111
0000000010111110
0000000010001011
1000001011100000
1000000001111100
0000000110111011
1000000101010110
1000001111001010
1000001010111001
1000000111000111
0000000101100011
0000010011000110
0000001010000001
0000000010111001
0000000110010011
0000000111001010
0000010000111100
0000000110010011
0000000011001101
1000000111010010
1000010011000100
1000001101001110
1000001000011011
0000000101010011
0000001011011011
0000001101111000
0000010011000110
1000000011010101
1000001010100111
1000010100110010
1000001100000000
1000000111111111
1000000011110001
1000000001101111
0000000111011110
0000001101000010
0000001011011010
1000000011000011
1000001010100111
1000000001111101
1000000101000011
0000000110010111
0000001000100110
0000000101111111
0000000011100101
1000001100001000
1000000001101010
1000000110111101
1000000001011100
0000000000000000
0000010001001100
0000000000111111
1000000100001010
0000000000111100
0000000010101001
1000001000100011
0000001011010111
0000001001000011
1000000100100000
1000000111100010
1000000011111010
0000001011000010
0000010001010100
0000001001110000
1000000011110010
1000010000111011
1000001110001010
0000000000110001
0000000100001110
0000000101010000
0000000110000010
1000001101010100
1000001100111001
0000001000010010
0000000101001011
0000000101100010
1000000101110001
1000000010101010
1000000001111010
0000001010001011
0000000111000101
0000000011101101
1000000001010001
1000001001000011
1000000010000001
0000001011011111
0000000010000001
0000000101110110
0000100000111101
0000100011110001
0000101011110011
1000011110110111
1000111101110001
1000101111000001
1000000111101111
1000000111100000
1000001000001010
1000000101111010
1000000110100010
1000000000101100
0000001101001100
0000010110110000
0000001011000010
1000010000010111
0000000010110001
1000010001000101
1001000001100011
1001001000011010
1001000010100000
0000100101101011
0001110000011000
0000111111000011
0000001010001001
0000000111001010
0000000101010100
0000101000100001
0000101100010001
0000101110010101
1000100111101101
1001001001100000
1000110100011000
1000001001110000
0000000010100010
1000010100100001
1000110110000011
1001000100101001
1001000010000001
0000100101011001
0001101011000001
0001000000101100
1000010000000111
0000001001001111
1000001111000001
1000000011000111
0000010101011010
0000000001001101
1000000011111011
0000001110010110
1000000011100111
1000000101110101
1000000011111111
1000001011111011
0000000001011001
0000000011001011
1000000000001100
1000000101000100
1000000011110111
1000001111000001
1000001000111011
0000001011111010
0000000011011100
0000010101000110
0000110001001011
0000100101100000
0000010010100110
0000110000001101
0000101101111111
1000001111010101
1000000101000001
0000000001111100
1000001000000100
0000000100100110
0000000100001101
1000001100111001
0000000010100100
0000000010101111
1000001110010001
0000000001001001
1000001111100100
1000000101101001
0000001100101111
1000001111001010
0000000111010001
0000010110000101
1000001010001110
1000001101100010
0000000010010000
1000001001110110
0000000101010100
0000010101110100
0000001010011101
1000000100011101
0000001100110110
0000000101001110
1000001100110010
1000000101011111
1000000100011010
0000000101111001
0000001101110000
0000001110111001
1000001000000000
0000001000111000
0000001010011101
1000010101100100
0000010111101100
1000011110001110
0000001110010100
0000111110111111
0000001111000010
1000010110101011
0000010001010001
1000011010101000
1000010010110001
1000000110010100
1000001111110111
0000000000010110
0000001011110100
0000000010010000
1000001110011000
1000000010001111
1000000110100101
1000001010001000
1000000111001110
1000001111000011
0000001011001101
0000001010110011
0000000000011111
0000010100110111
0000001001101111
0000000010100000
1000010010001100
1000000010011100
1000001111111101
0000000011101001
0000010011100000
0000000101010000
1000000011011000
0000001010100111
0000000001011011
1000010100010011
1000000101000110
1000001010000011
1000010011100100
0000000000111000
1000000101011110
1000000101001000
0000001101101010
0000001110100010
1000110001010111
1000011101010111
1000110000110111
1000010101000100
0000000010000110
1000001111011010
1000100000011100
1000010010101001
1000100010001101
1000000001111000
1000001011001010
1000001111111010
0000001001010001
0000000100101000
0000001001101010
1000000001011111
1000000110111001
1000000101111100
1000000010011011
0000001001010100
1000001000001010
1000001000011101
0000001000110111
1000001010101101
1000000010110101
0000010001011110
1000000111010111
1000001101101010
1000010111111001
1000001001110110
1000001000110101
1000001100001111
1000000010000010
1000000000100111
1000000111010011
0000001000111101
1000000011100100
0000000011100100
0000000101111010
1000001001001110
0000000000101101
0000001000001011
1000001000001011
0000000000110010
0000000001000001
0000000101100110
1000000010111100
0000000001000101
0000001010001010
0000000001010110
1000000100110000
0000000101011111
0000000000111010
1000000110001000
1000000011001101
1000000011101110
0000001001000001
1000000110010100
1000000110010011
0000001001111001
1000000101111010
1000000010100110
0000000100000000
1000000001000110
0000000001100011
1000000000100110
0000000001001110
0000001001011010
1000000010010010
0000000001100010
0000000100000011
1000000000001010
0000000011100000
0000000001010101
1000000011100001
0000000001010111
0000000000000010
0000001000001101
1000000000100010
1000000100101101
0000000010100101
1000011100011001
1000011100010101
0000111011111100
1000101110001001
1000111010111111
0001101100001101
1000010110110101
1000100100010011
0000110001011110
1000000000101000
0000000010001011
1000000011110100
1000000000000101
0000000001001001
0000000110011011
1000000001000100
1000000000100011
0000000010000110
1000000011111111
1000000001101001
0000000010011100
0000000001000101
1000000001000000
0000000100011111
0000000010101000
0000000011010001
0000000010101000
0000001011011100
1000000010101110
1000000111111110
0000010001111101
0000000010101011
1000010001010001
0000001011011001
1000000000110010
1000001011001010
0000000010010001
0000000011101000
1000000001100011
0000000000000001
0000000101100010
0000000000100110
1000000010101000
0000000000010011
0000000010100000
0000100001000111
0000011000010011
1001011101111001
0001011100011011
0001101011010101
1011000001101011
0000100110001010
0001000111001110
1001010000101011
1000000100101011
1000000000011010
0000000011101111
1000000100001110
0000000010010100
0000000110010110
1000001000110011
1000000111010001
1000000000011001
1000001001000110
1000000101101111
0000001110011010
1000010010100100
1000001110011101
0000011011001100
1000001011111001
1000000111001001
0000010001000111
0000000010100011
1000000000000001
1000000000011111
0000000110000101
0000000001101011
1000000110110001
0000000010011111
1000000100110001
1000000011011000
1000000100011111
1000000000100111
0000000001111000
1000000010001110
0000000001110101
0000000001111001
1000000101000111
1000000001011110
1000000010001100
1000000001010100
1000000000111100
0000000011010101
0000000001100100
0000000000100010
1000000100110011
0000000001010001
1000000011010110
1000000011011101
1000001110000000
0000001110011010
0000000101110111
1000010110010111
0000001100111001
1000000010011100
1000010001001110
0000000100010111
1000000110001110
0000000011011011
1000010110101010
0000001011111001
1000000000100100
1000010100001110
0000010010011100
1000000101001000
1000010100101101
0000001001111110
1000000000000110
0000001101011011
1000001100001000
0000000111100110
0000001110001011
1000001101100011
0000000101110101
0000010000001001
1000000011001110
1000010011010011
0000101101001111
1000011010101010
1000010001110100
0001001011011111
1000101111110010
1000000110101000
0000101000001000
1000101100000011
0000001010110110
1000001110010010
0000001101111101
0000010011111001
1000010100100011
0000001110110110
0000001010111111
1000001010100011
1000001001110101
0000000101001001
1000000101000011
0000000100010110
0000001000000000
1000001101010001
0000000101100110
0000000110111000
1000001000001001
0000000111001010
1000001001110001
0000001011011001
1000001111100010
1000001100110100
1000010001110100
0000000001000010
1000000010011100
1000001110001100
0000011100011011
1000000010001111
0000000011110110
1000000111011110
0000000100110111
1000000010100111
0000000101010000
0000000000101000
1000000000111100
0000000111111011
0000001000110111
1000001010110011
0000000101111000
0000001100010001
1000010110001100
0000000011100001
0000001000110010
1000010000011110
0000000100010000
1000000110010001
1000011101011001
0000010001100010
1000001000010101
1000100001010001
0000100010010110
1000000100001110
1000010101100000
0000011010100101
0000001110110010
1000000101010001
1000000001110101
0000010000010011
1000010010000011
1000000010101010
0000001100011101
1000000110011101
1000000101001101
0000000010010011
0000010001111100
1000100110000110
1000001001000101
0000110011001101
1000010111001000
1000011011101110
0000011100001001
1000000011101000
1000000000010100
0000000011100101
0000001100010110
1000000010001000
0000000101101110
0000001000110010
0000000000110100
1000000101001101
0000001011001101
0000001101011010
1000001010011100
1000000000010011
0000001110110010
1000010111010000
0000000010001110
0000000000010010
1000010101011100
0000010001000000
1000001011111111
1000010101110110
0000010001100110
1000001100100011
1000011101011000
0000101011011000
1000000100001100
1000011111100000
0000000100001100
0000000100000101
0000000101000011
1000000110001011
0000000101111001
0000000111101110
1000010101110110
0000000111100011
0000010000110011
1000011010101100
1000000110100000
1000000010011110
1000000010010110
1000000011000010
0000010000111011
0000000001000111
0000000011001110
0000001010101101
1000010110001001
1000001000001101
0000010101101001
0000000101101110
1000010000001111
0010010111000110
1001101110100010
0000000010100110
0000000110100011
1000010101011111
0000000101101101
1000010100001110
0000000100000100
0000010011001010
1010001100101100
0010000010001000
1000000000010010
0000000000110010
0000001111110000
0000001010100101
1000001101100101
1000001011110100
1000000101000101
1000100110101011
0000100001111110
1000000001110101
0000011010100101
1000000010101010
1000001001011000
0000001010101110
0000010000000100
0000000001111001
0000011100000110
1000110001100000
1000000001001101
0000001100000001
1000101011010100
1000000010010111
1000000100100000
0000000100011011
1000000011001101
1000000000000110
0000000101111111
0000000100111001
1000000100101110
0000000000101111
0000001000101000
1000001100011111
1000011010011111
1000000001100101
1000100100111000
0000101111010011
1000000010101011
1000001010011101
0000101111011100
0000000100101001
1000000100000111
0000000000100000
1000000010001011
1000001011110101
1000000010001100
1000000010110000
0000000010011011
0000000110011111
1000000001101000
1000000011100001
1000000010111010
0000000011000101
0000000000110111
0000000010010100
0000000010011110
1000001000010010
0000000000011110
1000000100111000
0000010010010100
0000001001101111
0000001000111000
0000100101001010
1000101011100101
0000000101111110
1000011010100000
0000000110010001
1000000111111000
1000000000110101
0000000011010010
1000000010001100
1000000000101110
0000000011011101
0000000011001000
1000000000100011
0000000000111111
0000000110110001
1000001101110110
1000001001011111
1000000111000010
1000010100011000
0000001110011111
1000010010010101
0001000000000001
1000100000110111
0000000010001111
0000001001110111
1000001111100011
1000001001111000
0000101101100000
1000100010001011
1000000010000110
0000000110001110
0000000000111000
0000000011000011
0000000100101011
0000001010001011
0000000011110101
1000110001001101
0000111001001000
0000001000010100
1001010101101111
0000110011010100
1000000110101000
0000010001000000
0000001010011101
0000001111011111
1000000101000110
1000010100001110
0000000110010110
1001000100011100
0000011010101000
1000000000100111
1000000100100000
1000010001100110
1000001110000000
0001000101011111
1000111011011111
1000000111010100
0001100110100010
1001000111100011
1000110101110010
1000101101110101
0000010000001110
1001100010110010
1000010101000011
0001110110111110
1000101011110100
0000010111011010
0001001101011010
0000000111100010
0000001001110101
0000000010100100
0000001011011100
1000000010001100
1000000101011011
0000000000011011
1000001111010111
1000010010101010
0000000100100000
0000000110010111
1000000100000011
0000000111010110
0000000101100101
0000000001011100
0000000110111101
1000000000100111
1000010000011110
1000000101001111
1000000110000101
0000000000010010
1000000011001111
1000000011111000
0000000000100100
1000000011111110
0000000010101110
0000000000100101
0000001000111111
1000000101001000
0000000000011100
0000010111100000
1000000100111100
1000000101001000
0000001101100000
1000000110001000
1000000001111101
1000000010010111
1000000010101011
0000000101000011
0000000010000100
1000000011011010
0000000010101111
0000000010000011
1000000100000011
1000000001101010
0000000000001111
1000001111100111
1000000001000000
1000000011000001
1000001110110101
0000011001100010
0000000001001001
1000000000001001
0000001100100010
0000001001001100
1000001001101001
1000000011110000
1000010110100100
1000011110010010
0000100010011101
1000001000111101
1000001111111111
0000001001111010
0000000101110101
1000000001011010
1000000010101110
0000010101000000
1000000110010010
1000010000000101
0000001100100100
1000001001110111
1000000100010010
1000000101100000
1000001001011111
1000000010000101
1000000101010011
1000001100010010
0000000110010001
1000000110010001
0000000100010110
0000001011001001
1000000001000011
1000000010001000
1000000000011011
0000001000110110
1000000111101001
0000000100000111
0000000100001010
1000001001010010
0000000010101111
0000010110100001
0000001100110001
1000001000011000
0000100011111101
0000001101010001
1000100001101011
0000000110001111
1000001011010010
1000100011111111
0000000100010110
0000000000000100
1000000100000101
1000000101100011
1000000111100000
0000001000001010
0000000111000000
0000000110110001
0000000011011110
1000000000001101
1000000010010110
0000000011110000
1000100000111111
1000011001010110
0000101110010100
1000011100000001
1000000110001001
0000100101100101
0000001110000011
0000010010001010
1000000011001001
0000011100000010
0000001111000101
1000011101110101
0000000001111011
0000000000001000
1000101010001010
0000000100000010
1000000010110001
0000000111010100
1000100100101010
1000010011001100
0000110101110110
1000010011101010
1000000010000001
0000100100100111
1000000000010001
1000010011001110
0000000011100001
1000000100011101
0000000110100011
0000000111001010
0000000011111000
1000000011111010
1000010010110101
0000000011011011
1000001011001110
0000000100001010
0000001111110101
1001001001110100
0001001000111001
1000011001111010
0000110010000011
1000001011001110
1000000110111010
0000001011100111
0000000000010100
1000110001011011
0001100101111100
1000110001100000
0000010101001000
1000101111001011
0000010000110100
1000001010110101
0000010110100001
0000000100100111
0000010100011111
1000100110010101
1000000010010101
1000000111000100
0000001011001111
0000001001010101
0000001100111000
1000010101001001
1000000100010000
1000000100111001
1000000111000011
0000010110110000
0000000011100001
1000000011000110
1000000011100111
1000000000111001
1000000100101001
0000000110010001
1000000100101011
0000001010110011
1000000001000001
0000000001111100
1000000011011110
1000000100110111
1000000111011111
0000010101010010
1000000010000011
0000001000011011
1000000101011111
1000011110100011
1000000011010101
0000000000100010
0000001100010001
1000000001000010
0000001000100011
0000000001001001
1000000011100100
1000000010011000
0000000000001111
1000000001110101
0000001000101100
0000000010100011
0000000110001001
0000000001001000
1000000011011111
0000000111101100
1000001011011100
1000001011010101
0000000000111111
1000000000001100
0000000100110000
0000001001101101
1000010100101111
1000000000100100
1000001000110111
0000001010110001
0000000101111110
0000001001100000
1000001011111101
0000000011010010
0000000001110111
1000000101100100
0000000010100010
1000000101000100
0000000011010101
0000000001100110
0000000011010101
0000000000000010
1000000101010010
1000000000101010
0000011011110000
1000010011011000
0000011001000110
1001001011000000
0000011011010011
1000001010001100
0000100110110001
1000010010100011
0000000010001011
1000001001000001
0000000100111111
0000001101010110
1000101101010010
0000001110100111
1000000100110001
0000010011011000
1000000100000101
0000000101101001
1000011000010111
0000000101101010
1000011010100010
0001111011110010
1001001010001110
0000000110001010
1000010110010001
0000010010001011
0000000111001010
1000100000001001
0000001110001010
1000100000100011
0001011100111010
1000011111001001
0000001011011010
1000101000000011
0000001101110101
1000000110011111
0000010001101010
1000000101101010
0000001101000011
1001110001110110
0001011111011010
1000000001111010
0000100101001001
1000100101001100
1000000101111000
0000000100111111
1000000011111010
1000001111110100
0000000101110101
0000000001000100
1000001000001001
0000001010001010
0000000001110011
0000000011000000
1000001100011101
1000001101010011
0000001001111010
1000000000101000
1000010111101110
0000001011010001
0000001111010100
1000001111010101
1000000000011111
1000000110000011
0000000101110101
1000000010010001
1000010110001110
0000011111111101
1000000101101111
1000010110100111
0000011100101101
1000010010110111
0000010011101001
0000000001110001
1000010001010010
0001001011100000
0000011110001111
0000000001010111
0000111010011110
0000000111111000
1000000001110011
1000111000000111
0000110010010011
1000000100010101
1000110101101000
0001101011100111
0000000001011010
1000001011110100
0001001000100101
0000000100101001
1000001010001100
0000000100011010
0000000011000010
1000001111001100
0000000100110010
0000000011011010
1000001011000000
0000000101101111
0000000011110110
0000100010110000
1000101011011011
0000000110110010
0000011111100100
1001010010001000
1000000001110100
1000010000001010
1000111110011101
1000000000010010
1000010001000111
0000000010101111
0000000110100100
1000001110000100
0000010001000011
0000000010111001
1000010100000001
0000001100110000
0000000110001001
1000001000100111
0000000110000101
0000001001000100
1000001100110011
1000000001011000
0000001011100110
1000001100000111
1000000001000001
0000001101110001
1000000011111011
1000000110001100
0000010000100111
1000110011001011
1000100101010000
0000000101000000
1000100110101111
1000011011001110
0000000100101100
1000010000110100
0000001010110101
0000001101011110
1000011100100101
0000010000001001
0000000111000101
1000011001101100
0000001011010100
1000000110001011
1000000000010011
1000000000000110
1000000100111000
0000101001011010
0000001111011100
1000010001100100
0000011100000110
1000000101101010
0000000110110000
0000000111010000
1000000110010101
0000001100111010
0000001110100111
1000010010100010
0000001110110011
0000000010111001
1000010101111100
0000001011001100
1000011001000100
0000010010011000
0000010111111011
1000011010001101
1000000101011100
0000010101111000
0000000001001101
1000001101010100
0000000011110111
1000000001011101
1000010100110011
0000001000001010
1000001000010011
1000010100001010
0000000001111101
1000010110011111
1000001001111001
0000000100010100
0000001100011110
1000000111110100
0000000000110000
0000000000101100
0000000000110111
1000000100100101
1000000111110111
0000001110000100
0000001011000110
1000010111010101
1000011000110000
0000000001011100
0000101110010011
1000010110111001
1000011011100111
1000100110101100
0000100010111000
0000000000111001
0000000001000001
0000001001011010
1000001100001110
1000010111111001
1000001011011001
0000100010110111
0000011110100001
1000000001001100
0000001010011111
0000000100111000
1000000000111001
0000001100010110
0000010011011001
1000010010100011
1000100101110111
1000011110110111
0000011010010101
0000000110100101
0000010010001110
1000000011111111
1000011110110010
0000011000110010
0000101001001110
0000001111011101
1000011101011010
1000011011100110
1000000111010011
1000100000001011
1000010000111100
0000011110110101
0001000101000000
1000100101001100
1000010000101101
1000011100110110
0000101101110100
0000001011111000
0000000011010111
1000000111011001
1000000101011111
0000000111110111
0000000000011001
1000001010000001
1000000110010111
0000000100011000
0000000101100100
0000010101001111
1000001001111000
1000100000110010
1000100010011000
0001000011000101
0000010010101011
0000001000110000
1000101110111000
0000001100100010
0000000000010101
1000000001011111
1000000000111100
0000010111010110
1000001101101100
1000000110110001
1000000101010011
0000011110111111
1000000011010110
0000000100110100
0000000000011000
1000001111010010
1000001100111001
0000001011100100
0000010001011000
0000000101100110
1000001111011111
1000010001011111
1000100110101000
1000000000000111
0000110110000000
0000001000011010
1000110110101010
1000011010111101
0000101010011001
0000101011011100
0000000001110001
0000000011111001
1000000011011010
1000000100001100
0000000000010100
0000000011000001
0000000001111001
1000001000001001
0000000001110000
1000000001110001
0000000011000101
1000000000000010
0000000110010010
1000010010001000
1000001010110001
0000010000101110
0000001000100011
0000000100100011
1000001111000110
1000000110010101
1000000001000101
1000000110110111
1000010001100110
0000000001001001
0000010101110011
0000010100110000
1000001110010110
1000000010001100
1000010011010111
1000001111001000
0000000101011011
0000011110000111
0000010001010110
0000000100100000
0000000010100101
1000001001100100
0000000111111110
0000001100110010
0000000011011001
1000001110000000
0000000001010100
0000000111011001
1000000110110111
1000010011100001
1000000100000011
0000001000001011
1000000000111111
0000000110000010
0000001110011011
1000000010001011
1000100101101000
1000011100101101
0000000110111110
0000011010000011
1000000100010111
0000000011100010
0000001010110110
1000001011011101
0000000100111010
1000000101111011
1000000011000111
0000001000010011
1000001101000011
1000000011100101
1000001101110011
0000011101000000
0000001110100011
1000000000101110
1001100010110000
1000000110011110
0000011010010010
0000100011011010
1000000011000010
0000000111111000
1000100000010011
1000010011010011
1000001010101010
0001101001110011
0000001010010111
1000001001010011
1000100111011110
0000001011111000
1000000011111110
1000011101010111
0000000010110001
0001001101101111
0000111101011001
1000001100110110
1000110111011101
1000001111100101
0000000111011000
0000011111111000
0000100011110011
1000001001011100
1000110101001110
1000000110001100
0000000001011111
1000000111101010
0000010001110100
0000000010000110
1000001000000000
0000000000101101
0000000101001010
1000001110010010
0000000110001111
1000000010010011
0000000011100110
0000000010000100
0000000000110101
1000011111001101
1000100000110001
0000001001111001
0000101001111100
0000001000011111
1000000000110100
0000000001000010
1000001111100000
0000000110100110
1000000110100110
0000000000001101
0000000000101101
0000000001100010
0000001010000010
1000000000100101
1000000111000100
0000000010011000
0000000011100110
1000000010001101
1000000100100100
0000001010101110
1000000110001011
0000000001010110
1000000001110001
1000000111110010
0000000100101111
0000000000001101
0000000010101011
0000010100010111
0000000001010000
1001001001111011
1000111010011011
0000001001110100
0000101101101101
0000011011010001
1000000000101010
1000000110000011
1000000000000101
0000000100001010
1000000110100000
0000000110111010
1000000000110000
1000000000011111
0000000011000010
0000000010111101
0000000110001011
1000100100100101
1000010000110011
0001011111110001
0000101001000011
1000001101001000
1000111100111000
0000000000000000
0000001110001101
1000000101100000
0000000100011010
0000001011011011
0000001011001001
1000011100100110
1000000110001101
1000000111100000
0000001110110001
1000000001001100
0000001110011100
0000000100010000
0000001001101100
1001000110001100
1000000000110110
0000010011011101
0000101000010011
1000010011010110
1000000110100101
1000001010001001
0000100101101100
0000000110001000
1001010010000101
1000100001110100
0000001011001001
0001001110111001
1000010100111011
0000000001101011
1000000111111000
1000001111111100
0000000000111100
0001000101001110
1000011000000011
1000001101110001
1000111001011111
0000011000000110
1000000001010011
1000000000000110
0000000000110001
0000000011110000
1000000000000110
1000000101100010
1000000110000101
1000000110010110
0000000000110100
0000000110110101
0000010000000010
0000001110110100
0000000010011100
1000010001100111
1000101100110100
1000001001001111
0000010100100000
0000011100001001
1000000000010101
1000000011111100
1000000101100011
1000010111110011
0000000100110000
0000100010111101
0000001000111101
1000001000010111
1000010011000110
1000000101110101
1000000101001111
0000000111011010
0000011111110101
0000010011100010
0000001100010010
1000010100111110
1000011110111010
1000011001010001
0000000111001100
0000001100001000
0000000110100000
1000010000100010
1000010111110100
1000010100011111
0000000101011101
0000001101011010
0000001100010010
1000000010001011
0000000000011010
0000000000110111
1000000010101001
1000000000011000
0000000010111111
0000000010110000
1000000000001011
1000000001011010
1000001000100001
1000000001010110
0000000001011011
0000010100101001
0000100001110101
0000010101010101
1000001000100111
1000001100001111
1000001001010011
0000000110000011
0000000100110101
1000000000000111
1000010110110111
1000010101001011
1000011001001110
0000000001000101
0000001101001110
0000001010011101
1000000001111110
1000000001111001
1000000001001111
0000000011110011
0000000010101100
0000000010000101
1000000001000100
1000000011011011
1000000001101100
0000001100111001
0000001001000011
0000000011000010
1000011110010111
1000011101111111
1000001101001100
0000001000110110
0000011100111100
0000100101101000
1000000011001011
0000000001110111
0000000000000010
1000000001100011
0000000100010001
1000000001100110
1000000010101110
0000000011000100
1000000000100011
0000010000010000
0000010001111010
0000000011111110
1000101000011000
1000110001000100
1000010101010010
0000011010101111
0000101010010000
0000011000011110
0000000101011101
1000000000010110
1000000100100000
0000001101000010
0000000100110011
1000001010111000
1000001100111011
1000000001001001
0000000010010001
0000000000111110
0000001011000001
0000000011000110
0000010000101101
0001000100001110
0000101011110011
1000111000110000
1000111001101100
1000110000011000
1000001000100100
1000000110000111
0000000110100000
0000100001011011
0000100000001110
0000010001001110
1000001111001100
1000101001100010
1000011010111111
1000000111100110
1000000111011100
1000001000010001
1000011101010010
1000100110011010
1000111100111001
0000011101111011
0001001011101001
0000100000000010
1001001011010001
1010001001011010
1001000011011111
1000001001010110
0000100000100011
0000110101011000
0000010001001101
0001100000010001
0000111010000111
0000000011101111
1000000001111101
1000001001110001
0000000011110101
1000000011011000
1000001110001010
0000000000110001
0000000100110000
1000000011111110
0000000100110011
0000001101111101
0000001000110011
0000000010110100
0000000101010100
1000000111000111
1000001000000000
1000000000100100
1000001110100101
1000000011011010
1000010100011101
1000001001010001
1000000101011111
0000000010110110
0000000011010100
1000000011111000
0000000111111110
1000000101010111
0000001101101111
0000000100100111
0000000000100100
1000000010000110
1000000110110101
0000000110111101
1000000011100000
1000001010010111
1000000101100000
0000000000100011
1000000001000110
1000000010010000
0000001000011111
0000000010101100
0000000100001010
1000000010010011
1000000110000001
1000000101110110
1000000001010000
1000010101110001
1000001000100011
1000000010001011
0000000000000101
0000010000101000
1000000010110100
0000000010111010
1000000010011001
1000000011011001
1000101100100010
1000010010110101
0000000110011001
0000010000010111
0000010010100110
1000000010110010
0000010111110000
0000000000001110
0000001111001011
0000011011010011
0000001010010001
0000000101011111
1000000101110110
1000000101111111
1000001000000111
1000011000000111
1000001001110001
1000000110110010
1000001001110111
1000000001110100
1000001011000011
0000000001000000
0000000001110000
1000000000111010
0000000000000111
1000000010100101
0000000101001000
0000000001110100
1000001000000100
0000000110011111
1000000010001001
0000000001010100
1000000100001000
1000000001100001
0000000010111101
0000000000011000
1000011111001101
1000010000110110
0000000010100011
0000000010000001
0000001001010000
0000000110110010
0000100100011010
0000010101000110
0000001001101000
0000001110101101
0000001111111001
1000000010110111
0000000001110111
0000000010100111
1000001111000111
1000000101101010
1000001001100011
0000000111100111
0000011111100100
0000001001110010
0000000000100000
0000000110001001
1000001101000011
0000000110110000
1000001111011000
1000010011011111
1000000010010001
1000100111100001
1000010101000101
0000001010111011
0000000110111111
0000000110010111
0000000101010011
0000100100111110
0000001111011011
0000001110110101
0000100001111011
0000001010011111
0000000010011111
0000000110000111
1000001000110011
0000000110100100
1000001111011101
1000010001001101
0000000000101001
1000000000010001
0000001001011000
1000000100000100
0000000000110001
0000000101110111
1000000110001101
1000000000010100
1000001000010000
1000001000010111
1000001101011101
0000100000111110
0000001000001000
1001001000110001
0000100100111100
0000000000100110
1000100000010011
0000000111001111
0000000000001100
0000000110001000
1000011010101000
1000001011111100
0001001100110110
1000110000001110
1000000100001101
0000011110111010
1000010101111001
1000000101100101
1000000000001000
0000000010001111
0000010000100110
1001011101001101
0001001100011100
0000000100001101
1000000101101000
0000000011111101
0000000100111001
1000010100111101
0000110101000111
1000001000010110
1000011101100011
0000101101100100
0000000011010010
0000011001111110
1000110110011100
1000000000010001
0000000000000001
1000000010111100
1000000100111010
0000000000000011
1000000000101010
0000000100101100
0000000011110100
1000000011110110
1000000000001110
0000010100010000
1000111111111100
0000000001111001
0000011010110001
1000100000111100
1000000101001100
1000011000000110
0000101100101010
1000000001000111
0000000100001000
1000000000110011
0000000001011110
1000000000000110
1000010011000110
0000000011011101
0000001000101001
1000000001001101
0000000101010101
0000000011000010
1000001000011001
0000001001011100
1000001101101101
1000000001011100
0000000101100110
1000000001000110
1000000001011110
0000000101101000
1000000110101010
1000001110001001
1000001011001001
0001111101110100
1001001000111010
1000000100010001
0000001000101011
1000000101110110
1000000001101000
1000000011110000
1000000010010011
0000000000100001
1000000000010100
1000000010001000
1000000001110001
0000000100000110
0000000010001101
1000000000001101
0000000100000000
1000010000100000
1000000110011001
0000011011010110
1000101011110101
0000000011011100
0000010100001111
0000000011000000
0000000001011100
1000000010010111
0000001001101011
0000000100000110
1000100101111111
0000011010111010
1000000001101101
1000010111001111
0000100000000011
0000000101100010
1000001101001101
0000001000111011
0000000000011111
1001010010111110
0001010100010011
1000000100000011
1000011111101000
0000101000100101
0000000010000011
1000000101001010
0000010010011110
0000000100111100
1000011110010110
0000010010110101
0000001100101110
1000010001011011
0000000011010010
0000000001111111
0000000111001001
1000001000111101
1000000010101001
0001000001011100
1000110111010100
0000000010100110
0000011100110010
1000100100100011
0000001010001111
0000110011010101
0000101001001000
0000000001010101
1000100100000110
1000010111110001
1000000000101110
1000010001011010
1000010001100010
0000001000111110
0000000101001110
0000001000111011
0000001001110110
0000010110111011
0000001111001101
0000000110110010
0000000111000010
0000000110011111
0000010000111000
0000011100101110
0000010011000000
1000001011110001
1000011010010011
1000010101110100
1000001001100010
1000010001000000
1000001110010111
1000001111001110
1000000001000101
0000000010001001
1000001100111000
1000011011101000
1000010011111011
0000001001100101
0000000111001100
0000000010001011
0000010001001111
0000100000000101
0000011011101111
1000000111101000
1000001101111101
1000001011011001
1000001001001111
1000000011011000
1000001100010111
0000001010101011
0000001111100000
0000010001101100
1000000100011100
1000001010100010
1000001000010100
1000000110111011
1000001000010110
1000001000110100
1000001000101101
1000001100001110
0000000101000111
1000000101010001
1000001001110010
1000010110110001
0000001001001000
0000001011011001
1000000001010000
1000000101101100
0000101011000010
0000100010111101
1000000011011101
1000011001111100
1000001000100011
1000000110110110
1000010000110110
1000001010110010
0000000011010100
0000000101010011
0000000101000111
1000000111001000
1000000111000111
1000001010101000
1000000001110001
0000000000110001
1000000000101010
0000011010100001
0000100111111001
0000001010101001
1000000100011100
1000000110011100
0000001011010001
1000000111001111
1000001100001101
1000001101110011
0000010111111111
0000101100111011
0000011000001100
1000001010000000
1000010100010100
1000001111011100
1000001100101010
1000010011101001
1000001100011011
0000000111001010
0000011010000101
0000011100011011
0000001111110010
0000001110010001
0000000101001101
0000000011000010
1000000100011111
1000000011001100
1000001111010010
1000010100011001
1000001111101001
0000000100011010
0000001101001000
0000000101110010
0000001000110010
0000001111001001
0000001001000101
0000000001111111
0000000111110010
1000000000000010
1000001011101001
1000010010010100
1000010001000100
1000001110000000
1000001100100101
1000001001100011
1000000101100100
0000000010010101
1000000111010100
1000010100100110
1000100110000101
1000011000001001
0000000001000000
0000000010000001
0000001011111011
0000000000110111
0000010101111100
0000010101110101
0000001010000000
0000011011001011
0000010100000001
1000001001110000
1000001001111110
1000000111100001
0000000011110110
1000000100111000
1000001110100011
1000000000111100
1000000010010000
0000001000010001
1000001000010111
1000000011001110
0000000100110110
0000000110100100
0000001010011100
1000010100000110
0000100111010110
0000011000111111
1000000010001000
1000000000011011
1000101110001100
1000001000011101
1000001010001100
1000001100101000
0000001011011010
1000110101011101
1000101110101110
1000000000101100
0000000100010110
0001000110110011
0000100010001001
1000000001000101
0000010010011101
0000000101000010
0000110001000000
0000000100001100
1000110010101010
1000000011101011
1000101111110110
0000001110011110
0000011000111100
0000001110110110
1000100010010000
1000011100010000
1001000011000111
0000001011010101
1000000001000000
0000101111100001
1000000001001100
1000000101000110
0000000101011000
1000000000101000
1000001010110101
1000001000001011
1000000100010111
0000000110100010
0000001101110110
0000000011010011
1000011010010000
1000001011001100
0000011010001110
0000010001111100
0001011010001101
1000000100011101
1000000100010010
1000011111010101
1000010010000010
1000000000110000
1000000101101000
0000001000111111
1000010101101100
1000000110111101
0000000001011010
0000000011011100
0000000011100100
0000000001111011
0000000000110001
0000001010010010
0000000000000100
0000000111000111
0000000101011101
1000001100100000
0000000110000100
1000000101101110
1000001001100100
0000000010110010
1000001111111001
0000000111100000
1000101111000111
0000000000011100
0000111110011011
0000000000001011
0000101111000111
1000010110001111
0000000000001010
0000000010111101
0000000001011001
1000001001100001
1000001011101010
1000000010011110
0000000100010110
0000001101101110
0000000010000010
0000000101001010
1000000011100101
0000001011110000
1000010100010101
1000000100001110
0000010010111010
1000001000111010
1000000110111100
1000000100000111
0000011111000111
0000011010001000
0000000110111000
0000100000000000
0000010111010010
1000011011100010
1000000010110100
1000110011001110
1000011100100011
0000010001001110
0000010111101011
1000000110110011
0000100111001000
1000000101010000
1001010010101011
1000010100011101
1000111111011011
0000001100010111
0000001000101000
0000001110011101
1000000000001111
1000001000000100
1000101100001010
1000010100111010
0000100010001100
0000001001111011
0000000100011100
1000010000110011
1000011001000010
0000000011001111
1000100010011111
0000100100100000
0001010010001001
1000000011110010
0000110001011100
1000010000100111
1000000100100001
1000000001000101
1000001111001101
0000001000000110
0000001001001111
1000000000111101
1000000001010110
0000000100000111
0000001100011110
1000000000010000
1000000100111110
1000000101000111
0000000111011011
0000000010011110
1000000011010111
0000001100001001
0000001101001100
0000000100011110
0000000001101001
0000000010110001
0000001010101011
1000000011100111
1000001001010010
0000000110010111
1000000111000000
1000001110100010
1000000000010001
0000000000010010
0000000000010000
1000000000101101
1000000000110111
0000000010110101
0000000000011001
0000000010000000
1000000010100001
0000000100101110
0000000010111010
0000000100000100
0000000100011011
1000000100010001
0000000001000011
0000001111111101
1000000001011111
1000000101011111
0000000000111001
1000010100101100
1001010101100001
1001100110110111
0001010100100001
0000101101100101
1001100110111110
0000100011100010
0001111011010101
0000000001001001
0000000010011000
0000000011011111
0000000010100111
1000000011110000
1000000011101011
0000001000100001
0000000001010110
1000000010100000
1000000001011001
1000000101010011
1000000010100100
0000000100110001
1000000010010011
1000000111101010
1000000010100001
0000000011100011
1000000001100011
1000001000111000
1000010000101001
1000111110000001
1001010101100010
0000111111101000
0000010101010000
1001000100110110
0001001001100101
0001100100011000
1000000101000011
0000000000011010
0000000101010001
0000000000100110
1000000101111010
0000000111101101
0000001010011000
1000000101110001
1000001000010110
0000000111110101
0000000111110010
0000111110110110
0000101100000010
1001000010000111
1000100011110000
0001000111000000
1000001010010000
1001001010011111
1000001110110100
1000000010101101
0000000000010111
0000000110011100
1000000001001010
1000001001111010
1000000000100010
0000000011011110
1000000100001001
0000000000111011
1000000001000011
0000001110011011
0000011110010110
1000010011010110
1000010001100000
0000001100110000
1000010001001000
1000011000001101
1000000001011100
0000000001110011
0000000000001000
0000000001001100
1000000010010111
0000000011001100
0000000000101110
1000000011010011
1000000000000011
1000000111100000
1000000000010001
0000000011010110
0000000110101000
1000000011100001
1000001001010011
0000000001001011
0000000101011110
1000000111001110
0000000110101101
0000000101110011
1000000011100110
1000000110100000
0000000001111000
0000000111000111
0000000011010111
1000000100001001
0000000011010100
0000000011001110
1000000011110101
1000010010010010
1000001000010011
0000001010101111
0000001110000000
0000001001010011
1000000110111100
1000001011011101
1000000110001010
1000000000010100
1000001011000111
1000000111111001
0000000101100000
1000000111110100
0000000001000010
1000100000001100
1000000000110100
0000001001111110
0000000000010010
1000000100010111
1000000100011100
1000001110001001
0000001010010011
0000000001100110
0000101110000100
0000000011001000
1000011011011000
1000000001111101
0000010011001000
0000000001101111
1000010011110101
1001000100001111
1000010100011000
0000000011110100
0000110010001110
0000100010001011
0000000100110100
1000010110111100
1000001101101100
1000001101101000
0000111000011101
0001001100101001
0000000011011100
1000001111111011
1000110110010001
0000000010111010
0000000110011111
0000000010110101
1000001011110110
1000000111110001
1000000000011011
0000001010111010
1000000011010110
1000000011011000
1000001000100111
0000001011010000
0000010011101001
0000001101011010
1000100000101100
1001000100011110
1000001010001001
0000001001000000
0000101011011000
0000000001010101
0000000000111101
0000000110111101
1000000100001010
0000000000111000
1000010000111011
0000000010101001
0000000101001011
0000001001000010
0000001001010110
0000001001000010
1000000001000100
1000000100000011
1000010001010000
1000001001101111
0000000101111000
0000001000010101
0000001000101010
1000000111110011
1000010000010001
0000000100010010
0000011011010110
0001010001001111
0000001100101000
1000001101000010
1000111001011110
1000100111000011
0000000110101100
0000000100100011
0000000010010000
1000001000001110
1000000100000011
0000000010010100
0000000000011011
1000000100110011
1000000001110111
1000000010100010
1000001001110101
1000000101101110
0000011100011001
0000011000110000
0000001001110110
1000000110011001
1000010010000000
1000010100010100
0000010010110100
0000001101111110
0000001111100100
1000000101100101
1000100010100001
1000011011011110
1000011000000111
0000010111010100
0000100100110011
1000000001010100
1000000101010111
1000000111011101
1000011000001101
1000110011101000
1000000110111111
1000001001011111
0001000010001000
0000100011100110
0000010101100100
0000011001011110
0000010000000111
1000011100101111
1000100001100100
1000001011110011
0000001110010100
1000000001101000
0000001100001001
1000000010011000
1000000000111010
0000000100001111
0000010011110001
0000111101111100
0000000101000101
1000011011100011
1000101100100001
1000011101101001
1000001011010010
1000001010001110
0000000001100000
1000000001010010
0000000111000110
0000000110001101
0000000101110111
0000000111000000
1000000101101101
0000000111100010
0000000111111110
0000000010011100
0000000011010010
0000000111101100
1000000000101101
0000000010010010
0000000100001000
1000000000111001
1000000100100100
1000000100101110
0000000010101010
1000001101000011
1000000010110010
0000000001001110
0000000010010000
0000000111000010
0000000110001010
0000000010000000
0000000010001010
0000000010010010
1000000000101110
1000000110011001
1000000011101010
0000000010011111
0000000001011010
0000000100110000
0000000010010010
1000000001010111
1000000000001101
1000000010000011
1000001010010000
1000000000111111
1000000000100100
0000000001110101
0000000111101001
1000110110100011
1001101001010000
1000100101001111
1000101110100011
1000010000001000
0000111111000010
0000011101111111
0001010101110011
0001001000111011
1000000000001010
0000000011101110
1000000001101011
0000000000100000
1000000001000001
1000000110100001
0000000001000100
0000000011010111
1000000001011011
0000000000111000
1000000001001001
1000000010110100
1000000010111010
1000000000011010
0000000010100110
1000000011010110
0000000011010101
0000001000011000
1000001010000010
1000010011001111
1000010010110111
0000000100000101
1000001011000101
1000000000010111
0000001001001110
0000001101100011
0000011111001011
0000000001011010
1000000100110111
0000000000100100
1000000011000000
1000000101101000
0000000001000011
0000000010010001
0000000011010110
0000000101111111
0000110111111010
0010010011111111
0000101101101011
0000111100110111
0000010010110111
1001100001010101
1000100101011010
1001110000110011
1001011001000001
0000000000010101
0000000000100010
0000000000111000
1000000011011001
0000000010010111
1000000101001100
0000000010010111
0000000000101011
1000000100000010
1000000011010100
1000001000011011
0000000010101000
1000001000111100
1000001011001110
0000000010101011
1000000001010101
0000000100000110
0000001101100000
0000000001011100
0000000010111110
1000000011001010
1000000010000111
0000000011011111
0000000001101000
0000000001010101
0000000001010000
1000000011001100
0000000001010100
0000000100010101
0000000111011011
1000000101111111
0000000000000000
1000000101001000
1000000000000111
0000000000100011
0000000000111001
1000000010101011
1000000000001110
0000000000011001
1000000101010101
0000000000011101
0000000101100110
0000000001100101
0000000001011101
1000000000110111
1000000101011010
0000001011101111
1000000111011011
1000001000000110
0000011101011111
1000010110110001
1000000110101110
1000000100000111
1000001101111101
0000000100111100
1000000110010101
0000010000101001
0000000110101111
1000001100110010
0000010010101111
1000001000000010
1000001100100000
0000000011010001
1000000101001101
0000000010011010
1000001111001010
0000000010010101
0000010101101011
1000010011011100
0000010011011001
0000001111101101
1000010100010101
0000001001010110
0000111101111100
1000001110001100
0000010111010001
0000000010110011
1000110100001010
1000000011011011
1001001001110011
1000000110011100
0000000011010101
0000011110001101
0000001100110101
0000001011000000
0001001000111100
1001000011100100
0000000011110100
1000011100010001
1001000000001110
0000000001011000
1000000010010011
1000000011010100
1000000001000110
0000000011100101
1000000011000101
0000000001001001
0000000011111011
0000000011011000
1000000001001010
1000101111000100
1000011010100010
1000000100110100
1001001100101111
0001010010100110
1000000001001000
0000001010101010
0001001100100111
0000000010101010
1000010000110110
0000000111101101
0000000110010100
1000001100110110
0000010000010010
0000001010100100
1000001101011000
0000000101011000
0000000011100000
1000000100111000
0000000101101100
0000000000011011
1000010001010001
0000001001010110
1000000000011010
1000000111111000
0000000111011011
1000001001011111
1000101101111100
0000000111101001
1000100001011101
0000010111110010
0000100100010010
0000000101010001
0001001101000011
0000000010000001
1000000000010010
1000001001010110
0000000011110110
0000000001101011
1000000100011101
0000000011110111
0000001001101001
1000000101101100
0000000001101010
0000000110001100
0000001110101011
1000100000001000
0000001001101101
0000000101011101
1000010101000100
0000001001111001
1000001100011110
1000000001010110
0000001100000110
1000000001000110
0000001101010110
0000000010110011
1000011111110000
0000001111110111
1000000011110001
1000010100011001
0000010000110111
0000000100111000
0000000011010000
1000000010001001
0000000111011011
1000010101110011
0000000100100000
1000001000000011
1000010100000101
0000001011101100
1000000110101001
1000010100101010
0000001010100001
1000010001110110
0000001010110000
0000100000011101
1000001010111110
0000010101010011
0000000001110100
0000000100010100
1000001000011110
0000001101110100
0000001111101100
1000001101000110
1000000101101101
0000001110001001
0000000010010111
1000010111010110
1000000101100100
0000001010100101
0000001101001100
0000001001100100
0000001011111101
1000001001100101
0000000011111011
1000001011110011
1000010001100001
1000000101111110
0000000100110111
1000000100011010
0000001010010001
0000001011100101
1000011000001000
1000000011010111
1000010100101000
1000011001000111
1000010000110111
1000001111110111
1000000110000011
1000001010001011
0000001001000101
0000001111000110
1000000010010010
0000000100101101
0000001010001100
0000001011111100
0000000010100001
1000000000110110
0000010001000011
1000000111000100
0000000100100100
0000000100001001
1000010000110100
0000000011100010
1000000001100111
0000001000011111
0000001011001011
1000001011101100
0000000010101110
1000000001101111
0000000001011111
0000010101010011
0000010010001011
1000100100101101
1000011100111111
1000000110110100
1000010110111100
0000000111010110
0000010101101011
0000001001111110
0000011110101011
0000011010011010
0000000110100100
0000010000100011
1000001011011100
0000001111010001
0000001000011001
1000100011010000
0000000110100001
1000001011010011
1000010111100100
1000000101011100
0000001000111011
1000001011001011
0000000000111111
0000001111101111
1000010111110100
1000000110010100
1000001010100000
1000010110100110
1000011111110100
1000101100011100
1000000111110100
1000101011110111
1000010010000010
0000100010101101
0000000001010101
0000100111100110
0000110000111010
1000000110010010
0000000110000010
0000000010100101
1000000101001110
0000001000000110
1000000010000100
0000000000110000
0000001010001000
0000000011010100
1000010100010010
1000101101001001
1000000110000000
1000111110000101
1000010100000101
0000100111010010
0000000100111000
0000111010001100
0000101101010010
0000000111110110
0000000000001111
1000001001000010
1000000000000011
1000011000001000
1000010111011001
1000000101111000
1000010110011000
1000000011100000
0000010000100110
0000011000011100
0000000000110111
0000101110011100
0000011110100001
1000010101011010
1000000001000011
1000100001110100
1000101000100101
1000001100001101
0000000100010101
0000001000011000
0000000011111100
0000100011110110
0000001010000101
0000000110011101
0000001100110111
1000000110101100
1000010101000001
0000001000010011
1000000000010001
0000000100111110
0000101010011000
0000010010110000
0000010000111000
0000011100110000
0000001100000110
0000010111011011
0000001101000101
1000000110001110
0000001110101001
1000001100110000
1000011111100101
1000000110100100
1000010001110000
0000000001101000
0000000001001010
1000001001100100
0000000000010100
0000001011100000
0000011100011100
0000001101101000
1000001000101111
1000010110101000
1000011000000001
0000001101010000
0000010001100011
0000010111100110
0000000111010011
0000101001001111
0000010011111100
1000010110010110
1000101100001000
1000100010001111
1000000110000001
1000000010011111
1000010011101010
1000100001100110
1000100111011111
1000010000101010
0000011000000110
0000101010111000
0000101001011110
1000001011101000
1000010111010110
1000000011111111
0000011101100101
0000100110000011
0000000101100010
0000000001010110
1000000101000010
0000001100111010
0000001111000101
0000010101001111
0000100001111110
1000001100001101
1000010110000010
1000001011000010
0000000010111000
0000001110100010
1000001101111011
0000000111001101
0000001100101100
0000001001110011
1000000110010110
1000001100111000
1000000111101000
0000000001101010
1000000001100011
0000000001101110
1000000111101010
1000010010000101
1000010100001110
0000010011001101
0000110101110001
0000100010111100
1000000111101000
1000010010110001
1000001100100101
1000000111001011
1000001000010110
1000001011010011
1000000111101010
0000010100000100
0000010000101110
1000000001011110
1000011000001011
1000010011010001
0000001100101010
0000001011011101
0000001011101101
1000000110011111
1000011010011000
1000010101000011
0000000011101111
0000000010011010
1000000100110110
0000010010101010
0000010110100100
0000001110000101
1000000110011101
1000000010000100
1000000110010111
1000000110000100
1000011000100011
1000011101110101
1000000000011011
1000000110101100
0000000010011100
1000011001001010
1000110011010000
1000010101011010
0000011011101011
0000101111110111
0000010110100100
0000100000101111
0000101001111100
0000011100011111
1000000001110100
0000000110101100
1000001111000100
1000101010110000
1000110010000101
1000010110001101
0000001011000011
0000001011001100
0000010000000111
0000001011111110
0000101100101111
0000010000111011
1000100010111010
1000110111001101
1000101011111111
0000000111101000
1000001011100110
1000010001111010
1000010000010001
0000100000000011
0000010011111001
1000001010011110
0000010010111100
0000001010001010
1000010010000101
1000011011000010
1000010011100001
1000001011110101
0000000000011000
0000011000111010
0000011110100011
0000010011101000
0000001110000101
1000001111110101
0000000110001011
0000000110111001
1000001001010010
0000010001101001
0000001011001011
1000010000100000
1000010100110101
1000010110001100
1000000011110110
0000000101011111
1000001100011100
1000000111011111
1000000111110000
0000011001111111
1000000101100101
0000000101000101
1000010000011011
0000000000001100
0000001101000110
1000001001000001
1000001000010001
0000001000001000
0000100110011010
0000001101000101
1000101001101010
1000000111001000
1000000001110101
1000001111010010
0000001001101001
0000001010001110
1000011111001101
1000001111000101
1000001001110011
0000110001011110
1000000100011101
0000000100101010
1000011001010010
0000000010110110
1000010111011010
0001001111010001
0000011100110110
0000000111010100
1000001110111110
1000100000110111
1000000100010000
0000000110010111
1000011110100101
0000000111001101
1000110011011110
0010011101100000
1000000010111111
0000110001001011
1001011011100011
1000000111010111
0000000001001011
1000000000001000
0000000010111011
1000010011000010
0000001000000000
0000000111100101
0000000001110011
1000000011011010
0000000010110011
1000001000001011
0000011011110001
1000000101101111
0000111111110010
1010010001011101
1000000010000111
1000101100110110
0001010011111001
0000000000011000
1000000100000100
0000000011111110
0000000000010100
1000001000110111
0000000001100100
0000000100010110
0000000100111001
1000000011000010
1000000001010010
0000000111010010
1000000000010100
0000000000111111
0000000001100111
1000000011110000
0000000000011001
1000001010001000
0000000001101000
1000001010110111
0000010010001111
1000000111100110
0000010000100000
1001000001100111
1000010011111001
1000010001001000
0000010011110100
0000101010000011
1000000000011111
0000000101000001
1000000110010111
0000000000011010
1000001001000001
0000000101010000
1000000101110110
0000000000110101
0000000010100010
1000000110000110
1000000011011010
0000001000111001
0000000000100001
0000000111110000
0000000101011010
0000000111000110
1000000000101110
1000000101000001
0000000000011001
0000000100011100
0000000010010001
1000000011010011
0000011011001110
1000001000111001
0000000000100110
1000100010100111
0000000100101110
1000000100010010
0000000010101101
0000000011000100
0000000010101010
0000001000111110
1000000010110010
0000001011010101
1000101111111111
0000001000110011
0000000010001100
0000001010010010
1000010001010000
0000000110100001
1000001000011111
1000001011101111
0000000101101101
1000000001100111
0000010100000001
0000000010010111
1000001010101110
0000000110011011
0000001110000010
1000001011011011
0000000111010011
1000000001011111
0000101000000001
1000011010001001
1000000101100101
1000000001100001
0000000111101100
1000001011001101
0000000100111011
1000001001001101
1000000110010111
0000000000111101
1000001000110000
1000000010100001
0000001101010101
1000011010100110
1000000011101011
0000101011111001
1000011001110111
0000000100010100
0000000101001100
0000010001111100
0000001000111110
1000011011010100
0000100000111010
0000001001000011
1000101010000111
0000011100100100
0000000011011111
0000000101111010
1000010000010100
1000000010001000
1000001100111110
0000001000000100
1000001000010000
1000110100100110
0000100100010010
1000000101010001
1000101000101101
0000000110100000
0000000011011010
1000100100110010
0000010000011101
0000000100100001
1000011110101110
1000000001011111
0000000101000001
1000000100011101
1000001000111001
0000000001110101
1000000110000110
0000000111000011
1000000010001101
0000000000010100
0000000110000100
1000000001111001
0000000110001010
1000000000110011
0000001000001000
0000011000001011
1000000100000000
0000000101111010
0000001100100011
0000010001101111
0000000011000000
1000001000111001
0000010000011011
0000000100000001
1000001000101100
0000000010100001
0000000000111000
1000000110110111
0000001011110101
0000000010110100
1000001010010111
0000000000110110
0000000101000110
1000000101010000
0000000000110011
0000000100011100
1000001100100100
0000000011100100
0000000010000000
1000001011111001
0000000011010111
1000001001100111
0000011011101110
1000010010011110
1000000101100001
0001000000111110
1000100111010011
1000000110000101
0000110000100000
1000000111010010
1000000000111100
1000000110110110
0000000010101010
0000000101100010
1000000100101000
0000000110101000
0000000000010101
1000000101101101
0000000110101101
1000000110101000
1000010110100111
0000100001010011
1000000100101110
1000110101111010
0001000100110110
0000001001010010
1000111110000100
0000001001101011
1000000001000000
0000001011001011
1000001000011010
1000000101001111
0000001001001110
1000000101010011
1000000100100011
1000001000011100
0000001011010100
0000000010001100
1000000111000100
1000000000101110
1000000000001111
0000001111111111
1000100100001111
1000000011110000
0000011100111001
1000001111011000
1000000001101100
0000010001011100
1000100011010110
1000000100001010
0001010111011001
1000111000000001
1000011101001100
0001000101111010
1000100011101100
0000000011100010
0000000110010110
1000000111010100
0000000111000111
1000100011011111
0000011001110011
0000000110101010
1000100000101000
0000010101111011
0000000100100001
0000000010101101
0000000001011110
1000000100000010
0000000011011000
0000000101001100
1000000101001110
1000000011000010
0000000101111001
0000000011101010
0000000000000010
1000000011001110
0000000101110011
0000001101100111
1000000110010110
1000000110100001
0000001010001001
0000000001100000
1000000001000101
0000000000011001
0000000110001101
1000001100000111
1000010000011011
0000000000110100
0000001000001110
1000000011001010
1000000000000011
1000000010111011
1000001001100001
1000000111000001
0000001000010000
1000001010100110
1000011000010100
0000010000011110
1000000010000011
1000000110111010
0000000010000001
0000010010000100
0000010110100111
1000001111101000
0000000000010010
0000100000100010
1000001011000110
1000010110000011
0000001010101110
1000000111111010
0000000110010011
0000100001000001
1000011001010101
1000001011100110
0000011111111100
1000010100010001
1000010010011000
0000010101010000
1000000000101110
1000010010011011
1000011100110000
0000001111110010
0000001001011001
1000011010010110
0000001101010110
0000001100010101
1000001101010110
0000000101010110
1000000010111111
1000000000101100
0000000011010011
0000000000101000
1000000000000010
0000000000100100
0000000100111011
0000000010100100
1000001101100011
0000010100010111
0001000011001000
1000101110010001
1000100101101100
0000111001011111
1000010101110111
1000101101100101
0000001011011111
0000000010100101
0000010100001100
1000000000001011
1000001001000010
0000011101010001
0000010001101101
1000010001010011
1000000000000100
0000000110010001
1000010110110011
0000101000111000
0001010100111001
1001001111111011
1000111110101101
0001100010100100
1000001000000100
1000111111100000
0000001101100000
0000000000011100
1000000101011111
1000000000111101
1000000100001100
0000000000000001
1000000000001001
1000001011110000
0000000010000101
1000000000010010
0000001101100000
1000001010111110
1000100100110110
0000100101000011
0000010001110100
1000100001100011
0000001100101010
0000010100011011
1000001000101010
1000000001111000
1000000011000000
0000000111100010
0000000001110111
1000001010011010
1000010110000001
0000000110011010
0000000111111111
1000010010100101
0000000000111010
0000000101101001
1000001000001101
1000001001011010
0000000000110000
1000000101111101
0000000101111101
0000000110111011
0000000101000101
0000000111010000
1000000010001000
1000010010010101
0000001010101110
0000000001011011
1000000001100111
0000001100100011
1000000111110010
1000000000000111
1000001001100110
1000001001100100
0000000101100101
1000000000100111
0000010010100011
0000000111001110
0000000100011100
0000000111001011
1000001111010100
1000000011101010
1000101100100000
0000001100011101
1000100011001000
0001011001101110
0000101111111001
0000000111010001
0000000101011010
1000101100010101
1000000001110011
0000101011111111
1000001100011110
0000101011001111
1000111110100100
1000100000111011
1000001101001111
1000001000101000
0000101110110111
0000010000000100
0000011100110100
0000000011110110
1000010010001001
1001010000101111
1000010001011110
0000000100111011
0000101100111000
0000011000001001
1000001011101100
1000100001100010
0000001000010101
0000001000010110
0000100010111010
0000001110100111
1000000000011100
0000000110010011
1000010111010101
1000000000111010
1000001010001100
0000000010011110
1000000101110111
0000000110000001
0000000101110101
0000000100110010
0000000011010100
1000000111101010
0000010100001100
0000100010000011
1000000110111010
1000000110101010
1000110011011011
1000011001101010
1000000010100010
1000001000000000
0000010111000001
0000000100100000
0000000011011000
1000000000001100
1000000001110010
1000001100001011
1000000110100100
1000000001110001
1000000100000110
0000000011100001
0000000011100101
1000000011000001
1000000100001011
1000000100101000
1000000111111011
0000000000111010
0000000011011101
0000000101010010
1000000010110100
1000001000001111
1000011011110101
1000000010100110
0000001101101110
0001000111011011
0000010010010011
1000000100101100
1000101000111011
1000010001101010
0000000000001011
1000000001110110
0000000000101011
1000000110010100
1000000100001001
0000000001011000
0000000001001100
0000000110001110
1000000000001011
0000001101000101
0000011101000101
1000000010010100
1000010001010000
1001010010111000
1000000100111011
1000000010000011
0000111101100111
1000000010100110
1000000010000110
1000001010101101
0000001011010000
1000010101111111
0000001110010110
0000001111010100
0000000000011111
0000001000111110
1000001110001101
1000001001111001
1000000100011110
1000001100111001
0000010110011010
0000101000101101
1000010100101000
0000000101001000
1000111100110000
0000010100001101
1000010000010101
1000100100111001
0000000010000110
0000010010011000
0001011101010100
0000000011001001
1000000010101101
1000111000001010
0000000010111010
0000001001101010
1000000011111101
0000000111010110
1000011110100000
1000100011110000
0000001111101001
1000000011010101
0000111111010111
1000010111100000
1000000011100110
0000000101010001
1000000010101110
1000000011000001
1000001011011000
1000010001101011
1000000001011110
0000001110011011
0000001010010000
1000001000100001
1000000010001101
0000001110100000
1000000100000001
1000110000100101
1000011110001000
0000011011111001
0000101110001011
0000000011100011
0000001011000001
0000001000001110
1000001000001110
0000000000011011
0000110000101101
0000010100101110
1000011101011111
1000110010111010
0000001011010000
0000000000101111
0000000101101001
1000000000000100
1000010000110010
1001110011011010
1000001100001011
0000010100011000
0001101010011001
0000000110111101
1000000011100101
0000010100101111
0000001111000100
0000000011110100
1001100000111101
1001011010001000
1000000101010101
0000111101101101
0000111110001000
1000000010100010
0000000110101000
1000000001001000
0000000001101101
0000000010110001
0000000000001010
1000000100011000
1000000111110110
0000000100000010
0000000010100100
1000010110101101
1000011101100100
1000000110010010
0001101001100011
0001100101001111
0000000001101100
1000111110111010
1001000101011101
0000000101111001
1000000011001111
0000001000100110
0000000000001101
0000000010001010
0000000011010100
1000001000101011
1000001101101001
0000000001110110
1000000101011000
0000000000101110
1000000000101000
0000000011111000
0000000010111111
0000000111101001
1000000001000101
1000000001001000
1000001011000010
0000000011011111
1000000110011101
1000000010110011
0000001100000000
0001111100000000
0000000001011101
1000100001100011
1001011011010100
0000000010101101
0000000001010111
0000000001001010
1000000000010010
0000000001111000
0000000111011011
0000000011011000
1000000101011110
1000001000000010
1000000001000011
0000000111110111
0000000000010011
1000001101010001
1000001011111110
0000010011111010
0000000100111011
1000001010111011
1000000101010101
0000010011000111
1000000111011100
1000001001111101
0000000001100010
0000000000110000
1000010010101011
0000000001001111
0000010111001110
0000011001011101
1000001110101111
1000000110100000
0000000011010001
0000000110110101
0000000100110011
1000101100110100
0000010010111101
0000011000001010
0000011000010101
1000010100001010
1000000100010111
1000000000101111
0000000111111000
0000001010100001
0000001000010011
0000000101101000
0000001001100000
1000010000101100
1000010010111011
0000000011000000
1000000000101111
1000000000010100
1000000101010100
0000000100101010
1000011000100111
1000001110100010
1000001101110111
0000001111000011
1000000100010110
0000001000100011
1000000001000111
1000001100110001
0000001011111111
1000001011000011
1000000100100011
0000001001011111
1000000110111101
0000000110110100
1000000011111010
1000000100000001
0000000000001111
1000001001110011
0000000001001101
1000000100110101
1000001001010010
0000000011111110
1000000000000111
0000000011010011
0000000000010010
0000000100011110
0000010010010101
1000001101011010
0000000110101101
0000001010101010
1000010000100001
1000010000100010
0000000100011111
0000000111010111
1000010001011110
0000010111101101
0000001101001111
1000000111111001
0000010001010111
0000000101100011
0000000111110001
0000000010110100
1000010011111001
0000001011010001
0000000100101110
1000011100011010
0000001001110111
1000000000010001
1000010010101101
0000011101111101
0000010101000110
1000100011001010
0000101100000000
0000010110111101
1001000010100011
0000100010010010
0000000011101111
1000110110100000
1000001110011011
1000000000111001
0000010111011011
1000001101110100
1000000011010001
0000100101000000
1000001011101001
1000000010110011
0000011010011001
0000000010011100
0000000101101101
1000000101001111
0000000010101111
0000001111010011
1000001110001001
0000000010110011
0000000101110100
1000001101011111
0000001101001000
0000000010001010
1000000111010000
0000010101100000
1000000110011001
1000001000111001
0000001101111000
1000001011111001
1000000111111111
0000001010110001
0000000101011100
1000001001101101
0000001010011001
0000000010010001
1000010010001010
0000000110011001
1000000101011111
1000001011000110
1000010001010001
1000011000011100
0000100100101011
1000101011001101
1000110100011100
0001011110101010
1000100110010000
1000010111110100
0001000001111010
1000000101101101
1000000000010010
0000000011010011
1000000110100011
0000001100100111
0000010010111100
1000001111010011
0000000011101100
0000001100101100
1000001001011011
1000000111101110
0000001011110000
1000001011101101
1000001001010111
0000010101010000
1000001000110001
0000000000101010
0000010110000010
0000001011110110
0000000111011011
1000010010010110
0000001100000010
0000000111111101
1000011000101111
0000001000111010
1000000111011111
1000000110011100
1000000100111101
1000001000111000
1000000001011101
1000000101111111
1000001010011100
1000001000100011
1000000011111111
1000001001011010
1000001010001100
1000001100000011
1000000100000101
0000001001110100
1000001000011001
0000001000110110
0000000000001001
0000000001101000
0000010010101110
1000001011111001
1000000101100010
1000000011100011
1000000001001011
1000000010100111
0000010001101110
1000010011011100
1000001010110011
1000001100010110
0000010001111011
0000000101100111
1000000000000111
0000000001111111
1000000001110011
0000011100000000
1000100000011001
1000010101101110
0001000011001010
1000000110110000
1000000010110011
0000001010011000
0000000101111111
0000001000110010
1000100001001110
0000010110010010
0000100000000110
1001010000110111
0000011011111001
1000000000111110
1000010000111011
0000000100011111
1000000011110101
0000100111101001
1000001100110111
1000001110111000
0001000010100111
1000100010001011
1000000000000110
1000010000111101
0000000010010110
1000000011011011
0001011101111001
1001011010011100
1000000011001001
1000101011011110
0000111001111111
0000000010010001
0000000010101010
0000000000110111
1000000110000111
0000000010011101
0000000010100100
0000000001011010
1000001010011001
0000001000110001
1000000000001011
0000001100001011
1000001000000001
1000000010110101
1001010101110000
0001101010110111
0000000000011100
0000101101010101
1000111001010000
0000000101100001
0000000100011110
0000000001011110
1000000001111001
1000010101001011
0000000110011000
0000001001011110
1000001101011000
1000001000001011
1000000001010011
1000000100100100
1000000100100001
1000001001010001
1000000011000100
0000000111111010
1000000111100110
0000001101001110
1000001001111101
1000000011101000
0000001101011010
0000000000101111
0000000110110010
1000010100000000
0000010000011101
0000010011101011
1001000111101110
0000101100000110
0000000001000011
1000000100000000
1000000000100110
1000000000011010
0000000011000000
0000000000011100
1000000100010100
1000000100110110
0000000110100111
0000000000010001
0000001000010001
0000001000010111
0000001001000011
1000100100001101
0000001100011010
0000001100001010
1000011101101110
0000001111110110
1000000101100011
1000001011100001
1000000110011100
1000000110011001
1000000000110010
0000000011111110
1000001110001010
0000110100001111
1000011110101011
0000000000101100
1000010010010100
0000001110111000
1000001000011100
0000110011001000
1000010010110001
1000011001001101
0001010110000000
1000110000101100
1000000001001011
0000000000101110
1000000011010001
1000001011011110
0000000101101101
1000001001110011
0000001100110001
0000001010001001
1000010100010011
1000000010001000
0000000010111101
1000001011100010
0000000011001010
1000010110110000
0000000101011010
0000000111111011
1000111000110111
0000110110011011
1000001110001101
1000000001100110
0000001101001000
1000010111001000
1000001110110111
0000011011100010
1000000110000010
1000000111011110
0000000110101101
0000000000011101
1000001011110010
1000000010100101
1000001000100001
1000011000110101
0000001110000000
1000000110011001
1000001101001001
1000000101011000
0000000111110111
0000000110010100
1000001100011101
0000100001111111
0000001111101000
1000011110110110
1000000000011000
1000000100101100
1000000110010111
1000000100101001
0000010011111010
0000000101111001
1000001010001110
0000101101111111
0000011100011111
1000000011111010
0000010001101100
0000001101001110
1000000011100010
1000010000011000
1000010111010110
0000001111101011
1000010101100000
1000101010001111
0000000100000000
1000000100111011
1000010101011000
1000000100111000
1000000001100110
0000000000111100
0000000100000100
0000000010100101
1000000000000110
0000000110111000
0000000010101100
0000000010101101
1000000011010101
0000010110001110
0000011010110111
1000010011100110
0000001101001011
0001000100010111
1000001001100110
0000001000001010
0000011101011010
0000000100001101
1000000101110011
1000000010100111
0000000000101111
1000010101011010
0000010000001111
0000000100110011
1000001101011111
1000000000101010
0000001010000001
1000000011111100
1000000110110010
0000001100100111
1000000001000011
1000001011111000
0000000101001110
1000000100010000
1000000100001010
1000000001101010
1000001101110101
1000001011011101
0000000001111111
1000100110010110
1000010001111100
0000000000100010
1000010011001010
1000010100001010
0000001101011010
0000000000100101
1000010010111100
0000011011001111
0000000111010010
1000010110110111
0000001101101111
0000000011111111
1000001011111011
1000000001011010
0000001011001000
0000010000100110
0000000111110100
0000010100111010
0000010100010000
0000001101101110
0000001111111001
0000000000101010
1000011000010001
1000001011111111
0000010011011000
1000100100000001
1000001010111111
0000110010100111
1000001110100011
0000000011010111
0000011110100011
0000001000011000
1000000101101110
1000010111100111
1000000010110110
1000010110000111
1000000000100101
1000010001111000
1000010010010110
0000011000000010
1000000101100101
1000001011000111
1000000101111001
1000000011011011
1000011100111101
1000000100111000
1000001001100110
1000010101010000
1000000010010110
1000001101111001
0000001011110000
0000011011110100
1000001101101101
0000010000101101
0000100100100010
0000001001101001
0000011010111111
1000000100000001
1000000010001101
0000001011101101
1000001011100100
1000000111011001
0000010110100110
1000010001010100
1000000110010101
0000001101011000
1000011011001111
0000000000111010
0000001110110000
0000000010110110
1000000100001001
1000010110101100
0001001001110100
0000000111101000
1000110101110110
0000001011111101
0000001110001111
1000010000111110
1000000001000010
0000001000110010
0000100001111001
1000111111111110
1000001011100101
0000101010011111
1000001101100011
1000000010110011
1000100110011011
0000000011011011
0000010101111101
1000011011001111
1000110110000001
0000010100110010
0000110110011000
1000011110000001
0000001001110101
0000010001101110
1000110100000001
0000001001111000
0000101010101011
1000101001111000
0000000101000000
0000001110001100
1000011000011010
0000000000111011
0000000011110101
0000000000001010
0000000000111010
0000000100100100
1000000010000100
0000000010110010
1000000010011101
1000000101000100
1000001000001011
1000011110011111
0000111110110111
1000000011010110
1001000001001111
0000111010011100
1000000000000101
1000011110001000
0000100000010111
0000000100010100
1000010001001010
0000000110000100
0000001010111001
1000001101000100
0000000100111010
0000000100000111
1000001111000000
0000000110000001
0000000000000110
1000000111000111
0000000010011010
0000000100100011
1000001110101111
0000000110001001
0000000110001001
1000001100101000
0000000111000110
1000000001111110
0000100100001011
1000000010011111
1000010000111000
0000100010110100
0000101111100011
1000001010010001
1000100010110110
0000010101010010
0000000001110000
1000000100110101
1000000000110111
0000000101110000
1000000110011011
0000000010010000
0000000011010111
1000000110011000
0000000010011111
1000000010101001
1000101000101011
0000011000100000
0000010111000000
1000010001010001
1000011000111011
0000000010010101
0000101111100000
1000010111000110
1000000101000110
1000001001111111
0000001101101001
0000000001110111
1000100001001011
0000100000011000
0000000101111100
1000011100000110
0000001110100101
0000000001001100
0000010010000101
1000010000110101
1000001100011000
0000010100001011
0000001000100000
1000000110001001
1000101001101011
0000100110111010
1000000001000101
0000011011101000
1000010110111100
1000010111101111
0000110101110001
0000100101110100
1000001110110011
1000101100110000
1000000001001010
0000000000110100
1000010110001111
0000001101111110
0000011100010101
1000110010101101
1000001000100010
0000010100010001
0000010011100100
1000010011111110
1000000010101111
0000000010010101
1000000110001111
1000000110001110
1000000100111101
0000000011010101
1000000011101101
1000000001100101
1000001110001101
1000000101111000
0000010100101010
1000001011010000
0000001100111110
1001011001010110
0001001100111110
1000011010111010
0000111101000111
1000100111110001
1000000000100001
1000010111100100
0000001110111000
1000011110001100
0001100001110100
1000111110100011
0000010000101010
1000110110000000
0000100101011010
0000000010101011
1000100001110000
0000001110110010
1000000001000010
0000110101011011
1000100101110110
1000000011110110
1000000000000111
0000010101000001
0000000100010100
0000101001011000
1000100101011011
0000000010111011
1000001101010110
0000001000010110
0000000111010101
1000010101000001
0000011011111000
1000000000110110
0000000111111011
1000000101001101
0000001001000010
1000000111111100
1000000011000110
0000000000100110
1000000101110100
0000000001010100
0000000100001000
1000100100100000
0000100010001000
0000000010100100
0000000011000010
1000001100001010
0000000010110000
0000010010110110
1000011010001000
0000000000011110
1000000111100100
0000000100111011
0000000000100101
0000000101100010
0000000110100010
1000000101011000
0000000010011111
0000000011000011
0000000010100110
0000000011011001
1000000011001100
0000001010100010
1000001011000010
1000000011111100
0000000010001010
1000000011011100
0000000101010110
0000000110100010
0000010101100101
1000001101100110
0000001001100011
1001000010010010
0000101101001001
0000000110011001
0000000011110110
1000001111010101
1000000101001111
0000000100101100
1000000001010111
0000000100001001
1000000000011110
1000000110001110
0000000100111001
1000000111111001
0000000010100100
0000000010111010
1000110011110110
0000100101110001
1000010011111101
0001011011000101
1000110101011011
1000000100001001
0000010010000010
1000001110111101
1000000000011000
0000000100001001
1000000001100101
0000001011110000
1000100100010100
0000010110111111
1000000111001000
0000010100010100
1000010000110110
1000000110000111
0000010111101111
1000001010011011
0000001010010000
1000100111000111
0000010100001101
1000000001010110
0000000101011011
1000000011011100
1000000111110010
0000101011101000
1000011010111101
0000001000110101
1000110110110010
0000101110010110
0000001000100011
1000010010010100
1000000100000101
0000000001011111
1000010000111001
0000001010000100
1000000110111101
0000011010100010
1000001111111101
1000000010110001
0000000111000010
1000000000111000
1000000010110101
1000000110011110
0000000001001011
1000000011001001
0000000011110100
1000001110001010
1000000011011100
1000001100011001
1000000001011111
0000000011101110
0000000001100000
0000000001010011
1000001000111001
0000001100110011
0000001001101110
0000010000010111
1000011100001100
0000000001001010
1000000101100101
0000000010001010
0000000110101001
0000010001100110
1000100000111000
0000000010110100
1000010011010001
0000100011110000
1000000111101010
0000001000110000
1000001110000001
0000000010101100
1000100010010011
0001111110001001
1001000000001011
0000001001010000
1001011100110000
0000111101000010
1000000011111110
1000011001001000
0000001011101011
0000010000100110
0000100010101010
1000100010110010
1000001010101000
0000001000001011
1000001001101110
0000000001101001
1000000110100011
0000000001001001
0000000101001010
1000000100010011
1000000011010101
0000000000101101
0000001000111000
1000000011101000
0000000010011001
0000010100011110
1000100000000010
1000010010010001
1000011000010101
0000101001100101
0000000110110110
1000000000011000
1000000001100101
0000000001001110
0000000111011001
1000000001101010
1000000010010001
1000001100101000
0000001111001000
0000000010010000
0000000101110000
1000000011010001
0000000011011110
0000000011110001
0000000100011110
1000000011111010
0000000000100000
0000000011011010
0000000001001100
1000001010101010
1000000110110001
1000001101111100
1000000100100101
1000000001111100
0000011011010011
1001011000110101
0000111000001010
1000001110010011
0001101010010110
1000111101110010
0000000001100100
0000000010110111
1000000010011011
0000000000000100
1000000100100101
0000000011101110
1000000010110111
0000000001010111
1000000000000111
1000001011110100
0000000111011101
0000000111010110
0000000111010110
1000011001111000
0000001100110010
0000010010101100
0000000011011010
1000010110001011
0000000011100110
0000000100000001
1000000011011001
1000001010101010
0000010001101010
1000000000011011
0000001001001001
1000011010001110
0000000100100011
1000000010100001
1000010001000001
0000001100100100
1000000000110101
0000101111010000
1000101011111011
0000001001000101
1000101101011100
0000011101010010
0000000011011011
0000000100011100
1000000110000100
1000000000011100
1000000000001111
0000000111100100
1000001001101000
0000001100010110
0000001011010110
0000000011110001
0000001001100000
1000000101101111
0000000001110100
1000011110111000
0000100010100110
1000001001100011
0000011011110110
1000001111001110
0000011101010010
0000100000000111
0000000000011010
0000011100001000
0000001010100010
1000011110011100
0000000111100110
1000010011100110
1000011111000110
0000001110000010
0000010001001010
1000000111110101
0000010011111000
0000000000110000
1000010001001101
0000000110000100
1000000111000110
1000001011110101
0000101111000010
0000010001111101
1000001001110011
0000100010000110
1000001011000101
1000100110010010
0000000000110011
1000100000110000
1000101001010001
0000100011100001
0000010100110000
0000000000101010
0000010100011100
1000001100100110
1000001101101001
1000000000000111
1000010010011000
1000001010100010
0000010111100010
0000011010000011
0000000100010000
0000010000001001
0000000001111011
1000001111010011
1000000011101100
1000010000011011
1000001110010100
0000010010110011
0000000100100111
1000000011111100
0000000110000110
1000001000010000
1000001110011101
1000000010101000
1000001110011110
1000001010000100
0000010001110001
0000010111100111
1000001000011000
0000001101111101
1000000010010110
1000011011111101
0000000000011011
1000010001011100
1000010110010110
1000001100001001
1000000010100011
1000100111011111
1000000011011111
1000001011100101
1000100111011001
1000010111100100
1000011000110000
1000000110000111
0000110101000101
0000011011111100
1000001100000000
0000101000111000
0000000100000111
1000100000101010
0000000011110101
1000011101111100
1000101100110110
0000100010000110
0000010011000110
