0000000010110000
0000001000010000
0000000000110000
0000000001011101
0000000010011101
1000000010000100
1000000011000110
1000000001100010
1000000000011010
1000000001001011
1000000000110101
0000000000101100
0000000000101111
0000000001111110
0000000001101110
0000000000001100
0000000101100000
0000000100010110
0000000011001101
0000000000001111
1000000001111001
0000000000011001
1000000100001111
0000000100101110
0000000011010000
0000000000011110
0000000000000000
0000000011111111
0000000010000100
1000000101010001
0000000000110011
1000000010110101
